unsigned char soc_estimator[] = {
 0x1c, 0x00, 0x00, 0x00, 0x54, 0x46, 0x4c, 0x33, 0x14, 0x00, 0x20, 0x00,
 0x1c, 0x00, 0x18, 0x00, 0x14, 0x00, 0x10, 0x00, 0x0c, 0x00, 0x00, 0x00,
 0x08, 0x00, 0x04, 0x00, 0x14, 0x00, 0x00, 0x00, 0x1c, 0x00, 0x00, 0x00,
 0x84, 0x00, 0x00, 0x00, 0xdc, 0x00, 0x00, 0x00, 0xd4, 0x1f, 0x00, 0x00,
 0xe4, 0x1f, 0x00, 0x00, 0xa0, 0x69, 0x00, 0x00, 0x03, 0x00, 0x00, 0x00,
 0x01, 0x00, 0x00, 0x00, 0x04, 0x00, 0x00, 0x00, 0xde, 0xde, 0xff, 0xff,
 0x0c, 0x00, 0x00, 0x00, 0x1c, 0x00, 0x00, 0x00, 0x3c, 0x00, 0x00, 0x00,
 0x0f, 0x00, 0x00, 0x00, 0x73, 0x65, 0x72, 0x76, 0x69, 0x6e, 0x67, 0x5f,
 0x64, 0x65, 0x66, 0x61, 0x75, 0x6c, 0x74, 0x00, 0x01, 0x00, 0x00, 0x00,
 0x04, 0x00, 0x00, 0x00, 0x98, 0xff, 0xff, 0xff, 0x6c, 0x00, 0x00, 0x00,
 0x04, 0x00, 0x00, 0x00, 0x08, 0x00, 0x00, 0x00, 0x6f, 0x75, 0x74, 0x70,
 0x75, 0x74, 0x5f, 0x30, 0x00, 0x00, 0x00, 0x00, 0x01, 0x00, 0x00, 0x00,
 0x04, 0x00, 0x00, 0x00, 0x56, 0xd5, 0xff, 0xff, 0x04, 0x00, 0x00, 0x00,
 0x06, 0x00, 0x00, 0x00, 0x61, 0x72, 0x67, 0x73, 0x5f, 0x30, 0x00, 0x00,
 0x02, 0x00, 0x00, 0x00, 0x34, 0x00, 0x00, 0x00, 0x04, 0x00, 0x00, 0x00,
 0xdc, 0xff, 0xff, 0xff, 0x6f, 0x00, 0x00, 0x00, 0x04, 0x00, 0x00, 0x00,
 0x13, 0x00, 0x00, 0x00, 0x43, 0x4f, 0x4e, 0x56, 0x45, 0x52, 0x53, 0x49,
 0x4f, 0x4e, 0x5f, 0x4d, 0x45, 0x54, 0x41, 0x44, 0x41, 0x54, 0x41, 0x00,
 0x08, 0x00, 0x0c, 0x00, 0x08, 0x00, 0x04, 0x00, 0x08, 0x00, 0x00, 0x00,
 0x6e, 0x00, 0x00, 0x00, 0x04, 0x00, 0x00, 0x00, 0x13, 0x00, 0x00, 0x00,
 0x6d, 0x69, 0x6e, 0x5f, 0x72, 0x75, 0x6e, 0x74, 0x69, 0x6d, 0x65, 0x5f,
 0x76, 0x65, 0x72, 0x73, 0x69, 0x6f, 0x6e, 0x00, 0x70, 0x00, 0x00, 0x00,
 0xf4, 0x1e, 0x00, 0x00, 0xec, 0x1e, 0x00, 0x00, 0xbc, 0x1e, 0x00, 0x00,
 0x8c, 0x1e, 0x00, 0x00, 0x5c, 0x1e, 0x00, 0x00, 0x2c, 0x1e, 0x00, 0x00,
 0xfc, 0x1d, 0x00, 0x00, 0xcc, 0x1d, 0x00, 0x00, 0x9c, 0x1d, 0x00, 0x00,
 0x6c, 0x1d, 0x00, 0x00, 0x3c, 0x1d, 0x00, 0x00, 0x0c, 0x1d, 0x00, 0x00,
 0xdc, 0x1c, 0x00, 0x00, 0xac, 0x1c, 0x00, 0x00, 0x7c, 0x1c, 0x00, 0x00,
 0x4c, 0x1c, 0x00, 0x00, 0x1c, 0x1c, 0x00, 0x00, 0xec, 0x1b, 0x00, 0x00,
 0xbc, 0x1b, 0x00, 0x00, 0x8c, 0x1b, 0x00, 0x00, 0x7c, 0x1a, 0x00, 0x00,
 0x6c, 0x19, 0x00, 0x00, 0x5c, 0x18, 0x00, 0x00, 0x4c, 0x17, 0x00, 0x00,
 0x3c, 0x16, 0x00, 0x00, 0x2c, 0x15, 0x00, 0x00, 0x1c, 0x14, 0x00, 0x00,
 0x0c, 0x13, 0x00, 0x00, 0xfc, 0x11, 0x00, 0x00, 0xec, 0x10, 0x00, 0x00,
 0xdc, 0x0f, 0x00, 0x00, 0xcc, 0x0e, 0x00, 0x00, 0xbc, 0x0d, 0x00, 0x00,
 0xac, 0x0c, 0x00, 0x00, 0x9c, 0x0b, 0x00, 0x00, 0x8c, 0x0a, 0x00, 0x00,
 0x7c, 0x09, 0x00, 0x00, 0x6c, 0x08, 0x00, 0x00, 0x5c, 0x07, 0x00, 0x00,
 0x4c, 0x06, 0x00, 0x00, 0x9c, 0x05, 0x00, 0x00, 0x8c, 0x04, 0x00, 0x00,
 0x5c, 0x04, 0x00, 0x00, 0x2c, 0x04, 0x00, 0x00, 0xfc, 0x03, 0x00, 0x00,
 0xcc, 0x03, 0x00, 0x00, 0x9c, 0x03, 0x00, 0x00, 0x6c, 0x03, 0x00, 0x00,
 0x3c, 0x03, 0x00, 0x00, 0x2c, 0x03, 0x00, 0x00, 0x7c, 0x02, 0x00, 0x00,
 0x74, 0x02, 0x00, 0x00, 0x6c, 0x02, 0x00, 0x00, 0x64, 0x02, 0x00, 0x00,
 0x5c, 0x02, 0x00, 0x00, 0x54, 0x02, 0x00, 0x00, 0x4c, 0x02, 0x00, 0x00,
 0x44, 0x02, 0x00, 0x00, 0x3c, 0x02, 0x00, 0x00, 0x34, 0x02, 0x00, 0x00,
 0x2c, 0x02, 0x00, 0x00, 0x24, 0x02, 0x00, 0x00, 0x1c, 0x02, 0x00, 0x00,
 0x14, 0x02, 0x00, 0x00, 0x0c, 0x02, 0x00, 0x00, 0x04, 0x02, 0x00, 0x00,
 0xfc, 0x01, 0x00, 0x00, 0xf4, 0x01, 0x00, 0x00, 0xec, 0x01, 0x00, 0x00,
 0xe4, 0x01, 0x00, 0x00, 0xdc, 0x01, 0x00, 0x00, 0xd4, 0x01, 0x00, 0x00,
 0xcc, 0x01, 0x00, 0x00, 0xc4, 0x01, 0x00, 0x00, 0xbc, 0x01, 0x00, 0x00,
 0xb4, 0x01, 0x00, 0x00, 0xac, 0x01, 0x00, 0x00, 0xa4, 0x01, 0x00, 0x00,
 0x9c, 0x01, 0x00, 0x00, 0x94, 0x01, 0x00, 0x00, 0x8c, 0x01, 0x00, 0x00,
 0x84, 0x01, 0x00, 0x00, 0x7c, 0x01, 0x00, 0x00, 0x74, 0x01, 0x00, 0x00,
 0x6c, 0x01, 0x00, 0x00, 0x64, 0x01, 0x00, 0x00, 0x5c, 0x01, 0x00, 0x00,
 0x54, 0x01, 0x00, 0x00, 0x4c, 0x01, 0x00, 0x00, 0x44, 0x01, 0x00, 0x00,
 0x3c, 0x01, 0x00, 0x00, 0x34, 0x01, 0x00, 0x00, 0x2c, 0x01, 0x00, 0x00,
 0x24, 0x01, 0x00, 0x00, 0x1c, 0x01, 0x00, 0x00, 0x14, 0x01, 0x00, 0x00,
 0x0c, 0x01, 0x00, 0x00, 0x04, 0x01, 0x00, 0x00, 0xfc, 0x00, 0x00, 0x00,
 0xf4, 0x00, 0x00, 0x00, 0xec, 0x00, 0x00, 0x00, 0xe4, 0x00, 0x00, 0x00,
 0xdc, 0x00, 0x00, 0x00, 0xd4, 0x00, 0x00, 0x00, 0xcc, 0x00, 0x00, 0x00,
 0xc4, 0x00, 0x00, 0x00, 0xbc, 0x00, 0x00, 0x00, 0xb4, 0x00, 0x00, 0x00,
 0xac, 0x00, 0x00, 0x00, 0xa4, 0x00, 0x00, 0x00, 0x84, 0x00, 0x00, 0x00,
 0x04, 0x00, 0x00, 0x00, 0x8a, 0xd7, 0xff, 0xff, 0x04, 0x00, 0x00, 0x00,
 0x70, 0x00, 0x00, 0x00, 0x10, 0x00, 0x00, 0x00, 0x00, 0x00, 0x00, 0x00,
 0x08, 0x00, 0x0e, 0x00, 0x08, 0x00, 0x04, 0x00, 0x08, 0x00, 0x00, 0x00,
 0x10, 0x00, 0x00, 0x00, 0x24, 0x00, 0x00, 0x00, 0x00, 0x00, 0x06, 0x00,
 0x08, 0x00, 0x04, 0x00, 0x06, 0x00, 0x00, 0x00, 0x04, 0x00, 0x00, 0x00,
 0x00, 0x00, 0x00, 0x00, 0x0c, 0x00, 0x1c, 0x00, 0x18, 0x00, 0x14, 0x00,
 0x10, 0x00, 0x04, 0x00, 0x0c, 0x00, 0x00, 0x00, 0x99, 0xd0, 0x86, 0x09,
 0x4b, 0x85, 0x10, 0x96, 0x00, 0x00, 0x00, 0x00, 0x01, 0x00, 0x00, 0x00,
 0x02, 0x00, 0x00, 0x00, 0x04, 0x00, 0x00, 0x00, 0x12, 0x00, 0x00, 0x00,
 0x32, 0x2e, 0x31, 0x39, 0x2e, 0x30, 0x2d, 0x64, 0x65, 0x76, 0x32, 0x30,
 0x32, 0x34, 0x31, 0x32, 0x31, 0x36, 0x00, 0x00, 0x06, 0xd8, 0xff, 0xff,
 0x04, 0x00, 0x00, 0x00, 0x10, 0x00, 0x00, 0x00, 0x32, 0x2e, 0x30, 0x2e,
 0x30, 0x00, 0x00, 0x00, 0x00, 0x00, 0x00, 0x00, 0x00, 0x00, 0x00, 0x00,
 0x34, 0x99, 0xff, 0xff, 0x38, 0x99, 0xff, 0xff, 0x3c, 0x99, 0xff, 0xff,
 0x40, 0x99, 0xff, 0xff, 0x44, 0x99, 0xff, 0xff, 0x48, 0x99, 0xff, 0xff,
 0x4c, 0x99, 0xff, 0xff, 0x50, 0x99, 0xff, 0xff, 0x54, 0x99, 0xff, 0xff,
 0x58, 0x99, 0xff, 0xff, 0x5c, 0x99, 0xff, 0xff, 0x60, 0x99, 0xff, 0xff,
 0x64, 0x99, 0xff, 0xff, 0x68, 0x99, 0xff, 0xff, 0x6c, 0x99, 0xff, 0xff,
 0x70, 0x99, 0xff, 0xff, 0x74, 0x99, 0xff, 0xff, 0x78, 0x99, 0xff, 0xff,
 0x7c, 0x99, 0xff, 0xff, 0x80, 0x99, 0xff, 0xff, 0x84, 0x99, 0xff, 0xff,
 0x88, 0x99, 0xff, 0xff, 0x8c, 0x99, 0xff, 0xff, 0x90, 0x99, 0xff, 0xff,
 0x94, 0x99, 0xff, 0xff, 0x98, 0x99, 0xff, 0xff, 0x9c, 0x99, 0xff, 0xff,
 0xa0, 0x99, 0xff, 0xff, 0xa4, 0x99, 0xff, 0xff, 0xa8, 0x99, 0xff, 0xff,
 0xac, 0x99, 0xff, 0xff, 0xb0, 0x99, 0xff, 0xff, 0xb4, 0x99, 0xff, 0xff,
 0xb8, 0x99, 0xff, 0xff, 0xbc, 0x99, 0xff, 0xff, 0xc0, 0x99, 0xff, 0xff,
 0xc4, 0x99, 0xff, 0xff, 0xc8, 0x99, 0xff, 0xff, 0xcc, 0x99, 0xff, 0xff,
 0xd0, 0x99, 0xff, 0xff, 0xd4, 0x99, 0xff, 0xff, 0xd8, 0x99, 0xff, 0xff,
 0xdc, 0x99, 0xff, 0xff, 0xe0, 0x99, 0xff, 0xff, 0xe4, 0x99, 0xff, 0xff,
 0xe8, 0x99, 0xff, 0xff, 0xec, 0x99, 0xff, 0xff, 0xf0, 0x99, 0xff, 0xff,
 0xf4, 0x99, 0xff, 0xff, 0xf8, 0x99, 0xff, 0xff, 0xfc, 0x99, 0xff, 0xff,
 0x00, 0x9a, 0xff, 0xff, 0x04, 0x9a, 0xff, 0xff, 0x08, 0x9a, 0xff, 0xff,
 0x0c, 0x9a, 0xff, 0xff, 0x10, 0x9a, 0xff, 0xff, 0x14, 0x9a, 0xff, 0xff,
 0x18, 0x9a, 0xff, 0xff, 0x1c, 0x9a, 0xff, 0xff, 0x0e, 0xd9, 0xff, 0xff,
 0x04, 0x00, 0x00, 0x00, 0xa0, 0x00, 0x00, 0x00, 0x3a, 0xf1, 0x8c, 0x3e,
 0xba, 0xd2, 0xc9, 0xbe, 0xaa, 0x37, 0xb8, 0x3e, 0x24, 0x98, 0xc9, 0xbd,
 0x02, 0xf5, 0x5f, 0x3e, 0xbf, 0x49, 0x37, 0x3e, 0x07, 0x5f, 0x07, 0xbd,
 0x60, 0x94, 0xae, 0xbd, 0x89, 0x33, 0x34, 0xbd, 0x8d, 0x48, 0xa3, 0xbe,
 0x7f, 0xa2, 0x5f, 0xbc, 0xae, 0xe8, 0x7d, 0x3e, 0x44, 0xbe, 0x50, 0xbe,
 0x5e, 0xf2, 0xc2, 0x3e, 0x9e, 0x9a, 0xf0, 0xbd, 0xdb, 0x99, 0xe1, 0xbe,
 0x42, 0xd4, 0x8d, 0x3e, 0x15, 0xe0, 0xde, 0x3e, 0x92, 0x5e, 0x01, 0xbe,
 0x20, 0x49, 0x5a, 0xbb, 0x7b, 0x41, 0xac, 0x3e, 0xe4, 0xd1, 0x62, 0x3e,
 0xf8, 0x35, 0x08, 0x3d, 0xe3, 0xc3, 0xe9, 0x3d, 0xfa, 0x7d, 0x0a, 0x3c,
 0xd5, 0xac, 0xdd, 0x3d, 0xa8, 0xb6, 0x35, 0x3e, 0x44, 0x04, 0x90, 0x3e,
 0x4f, 0x07, 0x3f, 0xbe, 0xe6, 0xbd, 0x18, 0xbc, 0xca, 0xbc, 0xbd, 0xbd,
 0x1d, 0x4a, 0xed, 0x3d, 0x34, 0x13, 0x65, 0x3e, 0xf3, 0x76, 0xc9, 0x3e,
 0x41, 0xaa, 0x15, 0x3e, 0x28, 0x27, 0x17, 0x3c, 0x21, 0x59, 0x78, 0xbe,
 0xb4, 0xcc, 0x32, 0x3e, 0xac, 0x92, 0x74, 0x3e, 0xf0, 0xba, 0x9a, 0x3d,
 0xba, 0xd9, 0xff, 0xff, 0x04, 0x00, 0x00, 0x00, 0x00, 0x00, 0x00, 0x00,
 0xc6, 0xd9, 0xff, 0xff, 0x04, 0x00, 0x00, 0x00, 0x20, 0x00, 0x00, 0x00,
 0x76, 0xe7, 0x19, 0xbd, 0xfa, 0x43, 0xf4, 0x3c, 0xe8, 0xa5, 0xdf, 0x3e,
 0x90, 0x9d, 0xba, 0xbe, 0xf4, 0x2f, 0x60, 0x3e, 0x6b, 0x66, 0x88, 0xbe,
 0x64, 0x2b, 0x81, 0xbe, 0xa8, 0x46, 0xd3, 0xbe, 0xf2, 0xd9, 0xff, 0xff,
 0x04, 0x00, 0x00, 0x00, 0x20, 0x00, 0x00, 0x00, 0xac, 0xff, 0x7f, 0x3f,
 0xac, 0xff, 0x7f, 0x3f, 0xac, 0xff, 0x7f, 0x3f, 0xac, 0xff, 0x7f, 0x3f,
 0xac, 0xff, 0x7f, 0x3f, 0xac, 0xff, 0x7f, 0x3f, 0xac, 0xff, 0x7f, 0x3f,
 0xac, 0xff, 0x7f, 0x3f, 0x1e, 0xda, 0xff, 0xff, 0x04, 0x00, 0x00, 0x00,
 0x20, 0x00, 0x00, 0x00, 0x9e, 0xd0, 0x0f, 0x3e, 0xb5, 0x25, 0xc0, 0xbc,
 0x5e, 0x9d, 0xa6, 0x3e, 0x9a, 0xac, 0xa0, 0xbd, 0xbe, 0x3d, 0xb3, 0x3e,
 0x54, 0xf7, 0xf9, 0xbd, 0xc3, 0x1d, 0xbe, 0xbd, 0x73, 0x9e, 0x7a, 0x3d,
 0x4a, 0xda, 0xff, 0xff, 0x04, 0x00, 0x00, 0x00, 0x20, 0x00, 0x00, 0x00,
 0x31, 0x47, 0x45, 0x3e, 0x17, 0x13, 0x7b, 0xbe, 0x6b, 0x10, 0xa8, 0xbe,
 0x53, 0xda, 0x93, 0x3e, 0xa2, 0x87, 0xbd, 0x3c, 0x7b, 0xdd, 0x19, 0x3e,
 0x8e, 0x63, 0x80, 0xbe, 0x64, 0xfa, 0x96, 0x3d, 0x76, 0xda, 0xff, 0xff,
 0x04, 0x00, 0x00, 0x00, 0x20, 0x00, 0x00, 0x00, 0xd1, 0x9f, 0x1c, 0x3e,
 0x47, 0xb8, 0xab, 0xbd, 0xc0, 0x6a, 0x37, 0xbe, 0x35, 0xda, 0xb5, 0x3d,
 0x42, 0xd9, 0x0d, 0xbe, 0xb0, 0xd5, 0x95, 0x3e, 0xa4, 0x3e, 0xd3, 0x3d,
 0x11, 0xdc, 0x0f, 0xbc, 0xa2, 0xda, 0xff, 0xff, 0x04, 0x00, 0x00, 0x00,
 0x20, 0x00, 0x00, 0x00, 0xab, 0xdd, 0xa6, 0x3d, 0x04, 0x88, 0x92, 0xbb,
 0xb1, 0xb5, 0x96, 0xbe, 0xaa, 0x66, 0xbd, 0x3d, 0x0f, 0xaf, 0xf7, 0x3d,
 0xbc, 0xe5, 0x6b, 0xbe, 0x3d, 0x2c, 0xa8, 0x3e, 0xe1, 0x69, 0x22, 0x39,
 0xce, 0xda, 0xff, 0xff, 0x04, 0x00, 0x00, 0x00, 0x20, 0x00, 0x00, 0x00,
 0x78, 0xd6, 0xa9, 0xbd, 0x19, 0xe3, 0x8d, 0xbe, 0x1b, 0xe7, 0xed, 0xba,
 0x71, 0xb6, 0x9c, 0x3e, 0xd0, 0xc0, 0x91, 0xbe, 0x49, 0x0c, 0x88, 0x3e,
 0x6a, 0xf2, 0x82, 0x3e, 0x86, 0x12, 0x73, 0x3e, 0xfa, 0xda, 0xff, 0xff,
 0x04, 0x00, 0x00, 0x00, 0x00, 0x01, 0x00, 0x00, 0xa1, 0xc2, 0x87, 0x3d,
 0x7e, 0x90, 0x6e, 0xbe, 0xe4, 0x7f, 0xb3, 0xbe, 0xf0, 0xe4, 0x63, 0x3e,
 0x6a, 0x21, 0xc5, 0x3c, 0xdd, 0xec, 0x9d, 0xbe, 0xcd, 0x45, 0x64, 0x3e,
 0xb4, 0xfb, 0x5c, 0x3e, 0xe1, 0xee, 0x5d, 0xbd, 0x3e, 0x30, 0x30, 0xbe,
 0x7b, 0x29, 0x8a, 0xbc, 0xc3, 0xcc, 0x9a, 0xbe, 0x58, 0x09, 0x29, 0x3e,
 0xf8, 0x0e, 0x09, 0x3e, 0xb3, 0x31, 0xe7, 0xbd, 0xe6, 0x6a, 0x98, 0x3e,
 0x92, 0xaf, 0x0b, 0x3e, 0xe0, 0xe9, 0xb2, 0xbe, 0x0f, 0x23, 0x1b, 0xbe,
 0x04, 0xbb, 0x1a, 0x3d, 0x83, 0x6e, 0xac, 0xbd, 0x8d, 0xa4, 0xf5, 0xbd,
 0xb7, 0xb8, 0x8c, 0x3e, 0xd8, 0xf3, 0x69, 0x3e, 0x52, 0x44, 0x60, 0xbe,
 0xad, 0xbf, 0x23, 0xbe, 0x2a, 0x77, 0x75, 0x3a, 0xd8, 0x3c, 0x37, 0xbe,
 0xf4, 0x7c, 0xa4, 0xbe, 0x7a, 0xdb, 0xa9, 0x3e, 0x2a, 0xbf, 0x9b, 0x3e,
 0x17, 0x79, 0xec, 0xbd, 0x43, 0x1f, 0x71, 0xbe, 0x74, 0xef, 0x1c, 0xbe,
 0x29, 0x10, 0x79, 0x3e, 0xd5, 0xc7, 0xe6, 0x3d, 0x38, 0x70, 0x2b, 0xbd,
 0x82, 0x1e, 0x02, 0xbe, 0x6f, 0xbe, 0x7c, 0xbd, 0x5d, 0x92, 0x80, 0xbd,
 0xf5, 0x2c, 0x8b, 0xbe, 0x41, 0xd8, 0x80, 0xbe, 0x43, 0x51, 0x5d, 0xbe,
 0x2c, 0x8b, 0x86, 0xbb, 0xd8, 0x03, 0x9e, 0xbe, 0xa8, 0x9e, 0x33, 0xbe,
 0x77, 0x03, 0xb4, 0xbe, 0xcb, 0xdd, 0x3a, 0xbe, 0x15, 0xf6, 0x66, 0xbe,
 0x71, 0xee, 0x81, 0xbe, 0x60, 0xae, 0x81, 0x3e, 0xfd, 0x3c, 0x7a, 0xbe,
 0xee, 0xab, 0x41, 0x3e, 0xdc, 0x97, 0xfb, 0x3d, 0xfe, 0xd1, 0x0a, 0xbd,
 0x1f, 0x11, 0x85, 0x3e, 0xde, 0x6e, 0xb3, 0xbe, 0xab, 0x25, 0xdc, 0x3d,
 0x1d, 0xa3, 0x0c, 0x3e, 0x5d, 0x73, 0x6f, 0x3e, 0x4b, 0x24, 0x4a, 0xbe,
 0x4d, 0xaf, 0x49, 0x3d, 0x51, 0xb8, 0x5e, 0xbd, 0xec, 0x1a, 0x93, 0x3e,
 0x06, 0xdc, 0xff, 0xff, 0x04, 0x00, 0x00, 0x00, 0xa0, 0x00, 0x00, 0x00,
 0x19, 0x7d, 0xb1, 0xbd, 0x8e, 0xbc, 0xaf, 0xbe, 0x1c, 0x64, 0xfd, 0xbd,
 0x84, 0x10, 0x26, 0xbd, 0x61, 0x22, 0x11, 0xbe, 0x48, 0x58, 0x91, 0xbd,
 0x82, 0x3d, 0xfe, 0xbd, 0x1f, 0xa3, 0x27, 0x3e, 0x2e, 0x70, 0x81, 0xbd,
 0x73, 0x69, 0xd5, 0xbe, 0xa8, 0x6e, 0xd9, 0x3e, 0xdc, 0xfc, 0xc4, 0xbe,
 0x77, 0x7c, 0x27, 0x3e, 0x3a, 0x44, 0xd6, 0x3e, 0xe1, 0x09, 0xbf, 0xbe,
 0xe9, 0x45, 0x1b, 0xbc, 0x91, 0xa4, 0x89, 0xbe, 0x1a, 0x91, 0xda, 0xbe,
 0x32, 0xf4, 0xb9, 0xbe, 0x08, 0x6d, 0xde, 0xbe, 0x84, 0xe4, 0xbc, 0x3e,
 0x7c, 0xe3, 0xb3, 0x3e, 0x5d, 0x60, 0x76, 0xbe, 0xec, 0x89, 0xb7, 0xbe,
 0xa0, 0xbd, 0xa1, 0x3e, 0x9a, 0x76, 0xac, 0x3e, 0xd0, 0x95, 0xe3, 0x3d,
 0x04, 0x95, 0xd0, 0x3e, 0x10, 0x8e, 0x7e, 0x3d, 0xc9, 0x2f, 0x97, 0xbe,
 0x0e, 0x46, 0x0e, 0xbe, 0xcc, 0xd9, 0x7f, 0x3e, 0xd6, 0xa7, 0x1c, 0x3e,
 0x7c, 0x51, 0xe9, 0x3d, 0xaa, 0x54, 0x66, 0x3d, 0xab, 0xcd, 0x5a, 0xbe,
 0x89, 0xb9, 0xd1, 0xbe, 0x96, 0x5e, 0x2f, 0xbe, 0xd9, 0xe1, 0x0c, 0xbe,
 0xd1, 0x7f, 0x81, 0xbe, 0xb2, 0xdc, 0xff, 0xff, 0x04, 0x00, 0x00, 0x00,
 0x00, 0x01, 0x00, 0x00, 0x67, 0xbc, 0xeb, 0x3d, 0x28, 0xdf, 0x8c, 0xbe,
 0x9e, 0xba, 0xea, 0x3d, 0x53, 0x1c, 0x23, 0xbe, 0x39, 0xce, 0x00, 0x3e,
 0xf8, 0x66, 0x98, 0x3e, 0xc0, 0xf3, 0x07, 0x3e, 0x66, 0x97, 0x33, 0xbe,
 0xe2, 0xa5, 0x50, 0xbe, 0x22, 0x44, 0xd9, 0x3c, 0xe7, 0x1f, 0xb0, 0xbe,
 0xec, 0xcb, 0x2f, 0x3e, 0x39, 0xd1, 0xa7, 0x3d, 0x2f, 0x43, 0x40, 0x3d,
 0x77, 0x2c, 0x36, 0x3e, 0x55, 0xaa, 0x4d, 0xbe, 0xae, 0x7f, 0x3b, 0x3e,
 0xa9, 0xce, 0xd9, 0xbd, 0xee, 0x7b, 0x1e, 0x3d, 0x19, 0xfb, 0x1c, 0x3e,
 0xa7, 0x2e, 0x9b, 0xbd, 0x78, 0x15, 0x24, 0x3e, 0xe4, 0x19, 0x9a, 0x3e,
 0x2f, 0x50, 0x60, 0xbd, 0x3d, 0x91, 0x4b, 0xbd, 0x4c, 0xb1, 0x4c, 0xbd,
 0x61, 0x37, 0x5e, 0x3e, 0x42, 0xc2, 0xc5, 0xbd, 0x02, 0x70, 0xbe, 0x3d,
 0x6c, 0x10, 0x06, 0xbe, 0x85, 0x07, 0x94, 0xbe, 0xa0, 0xd1, 0xa9, 0x3e,
 0xa8, 0x46, 0xe1, 0xbc, 0x56, 0x03, 0xa6, 0x3e, 0x6b, 0x8e, 0xbd, 0xbd,
 0xd3, 0xfa, 0xa8, 0x3e, 0x6f, 0xd6, 0xb4, 0x3e, 0xf4, 0x6b, 0x72, 0x3e,
 0x6b, 0x6b, 0x21, 0xbe, 0xc8, 0x6c, 0x1c, 0x3d, 0xcd, 0xe8, 0x66, 0xbd,
 0x69, 0x70, 0x7e, 0xbe, 0xaf, 0x14, 0x28, 0x3c, 0x72, 0xd3, 0xa1, 0xbe,
 0x3e, 0x10, 0x4e, 0x3d, 0x3b, 0xfd, 0x96, 0x3e, 0xa2, 0xdf, 0xb0, 0xbe,
 0xec, 0x7a, 0x66, 0x3e, 0xfa, 0x82, 0x51, 0xbe, 0xdf, 0x69, 0x9f, 0x3c,
 0xac, 0xb2, 0x7b, 0x3e, 0xc1, 0x55, 0x53, 0xbe, 0xaa, 0x5d, 0x36, 0x3d,
 0xdd, 0xda, 0x43, 0x3e, 0x79, 0xfc, 0x2e, 0xbe, 0x87, 0x29, 0xf7, 0x3d,
 0xcb, 0xa9, 0x5b, 0xbe, 0x7f, 0xf2, 0x02, 0x3e, 0x7d, 0x24, 0x0c, 0x3e,
 0x2a, 0xaa, 0x4f, 0x3e, 0x44, 0x75, 0x66, 0x3e, 0xae, 0x4b, 0x89, 0x3e,
 0x07, 0xe2, 0x01, 0x3e, 0xc1, 0xb8, 0x35, 0x3e, 0xbe, 0xdd, 0xff, 0xff,
 0x04, 0x00, 0x00, 0x00, 0x00, 0x01, 0x00, 0x00, 0x43, 0x2e, 0xb7, 0x3d,
 0x85, 0xbc, 0x9b, 0xbe, 0x50, 0x7c, 0xa2, 0x3e, 0xa7, 0x42, 0x29, 0x3e,
 0x1b, 0xdf, 0x89, 0x3e, 0x9e, 0x9b, 0x53, 0x3e, 0x7e, 0xd1, 0xa7, 0xbe,
 0xa8, 0xd0, 0x88, 0x3d, 0xfd, 0xe8, 0x94, 0xbd, 0xd8, 0x2d, 0xa9, 0x3e,
 0xd3, 0x1a, 0xfd, 0xbd, 0x0b, 0x3e, 0x0a, 0xbe, 0x6c, 0xec, 0x0e, 0xbe,
 0x9a, 0x57, 0xee, 0xbd, 0x74, 0x1d, 0xa1, 0xbe, 0x33, 0xfc, 0x43, 0xbe,
 0x03, 0xab, 0xac, 0xbe, 0xbb, 0xeb, 0x48, 0xbe, 0x6b, 0xaf, 0x09, 0xbd,
 0xb6, 0xa1, 0x9d, 0x3e, 0x07, 0x64, 0x9f, 0x3e, 0x55, 0xd7, 0xad, 0x3d,
 0xb0, 0x89, 0x8e, 0xbe, 0x08, 0x28, 0x85, 0x3e, 0x2c, 0xbf, 0xa1, 0xbe,
 0x25, 0xe2, 0xeb, 0x3d, 0xb8, 0x19, 0x94, 0x3d, 0x2c, 0x8c, 0x0b, 0xbe,
 0xc1, 0x4f, 0x7b, 0x3e, 0x5c, 0xc3, 0x72, 0xbe, 0x0d, 0x12, 0x5d, 0x3e,
 0xc3, 0x1e, 0x9a, 0x3e, 0xda, 0xfe, 0xa3, 0xbd, 0xfd, 0x73, 0xce, 0xbb,
 0xf0, 0xe4, 0xb3, 0x3e, 0xd4, 0xa4, 0x21, 0x3e, 0x14, 0xd8, 0xa3, 0x3e,
 0x49, 0x4e, 0x55, 0x3e, 0x48, 0xfc, 0x1e, 0x3e, 0xfd, 0x71, 0x11, 0xbd,
 0x90, 0xe0, 0x91, 0x3e, 0x00, 0x24, 0x87, 0xbe, 0xa5, 0xb6, 0x5d, 0xbe,
 0x2c, 0x90, 0xb2, 0xbe, 0x37, 0xfc, 0x57, 0xbe, 0x36, 0x9d, 0xe9, 0x3d,
 0x4b, 0x21, 0x88, 0x3e, 0x31, 0x98, 0x3c, 0x3d, 0x7c, 0x99, 0xd7, 0x3d,
 0xab, 0xe7, 0xd6, 0x3d, 0xd6, 0x2f, 0x57, 0x3e, 0xc0, 0x65, 0xc7, 0xbd,
 0xb4, 0xcf, 0x00, 0x3d, 0x21, 0xfc, 0x69, 0xbe, 0x84, 0x47, 0xa0, 0x3e,
 0x46, 0x87, 0x97, 0xbe, 0xfd, 0x42, 0x63, 0xbe, 0x5e, 0x26, 0x40, 0x3d,
 0xf8, 0xa2, 0x8a, 0xbe, 0x4c, 0xea, 0x41, 0xbe, 0x67, 0xda, 0xaa, 0xbe,
 0x36, 0x5b, 0x32, 0xbd, 0x89, 0x0e, 0x51, 0xbe, 0xdf, 0x66, 0xea, 0x3d,
 0xca, 0xde, 0xff, 0xff, 0x04, 0x00, 0x00, 0x00, 0x00, 0x01, 0x00, 0x00,
 0xc4, 0x04, 0x9d, 0xbe, 0xab, 0xa6, 0xa8, 0x3e, 0x55, 0xbf, 0xc3, 0x3c,
 0x1b, 0x4c, 0x2c, 0x3e, 0x2a, 0x9a, 0x30, 0x3e, 0xd6, 0x00, 0xbe, 0x3d,
 0x1c, 0xaf, 0x96, 0xbe, 0xba, 0xfb, 0xad, 0x3d, 0x33, 0xb6, 0x33, 0x3e,
 0x12, 0x6e, 0x19, 0xbe, 0xc2, 0x3b, 0x12, 0xbe, 0x94, 0xae, 0x65, 0xbc,
 0xc2, 0x4b, 0xc4, 0x3d, 0x5b, 0x88, 0x92, 0x3e, 0x5f, 0xee, 0x88, 0x3e,
 0x58, 0x60, 0x70, 0xbe, 0xc8, 0xa9, 0x33, 0x3e, 0xca, 0x66, 0x06, 0xbe,
 0x02, 0xc1, 0xdd, 0xbd, 0x4c, 0x00, 0x0f, 0xbe, 0x36, 0xbe, 0x2d, 0xbd,
 0x85, 0x08, 0xe1, 0x3c, 0x6c, 0xeb, 0x4a, 0xbc, 0xed, 0x94, 0xb2, 0xbb,
 0xcc, 0xde, 0x7a, 0xbc, 0x23, 0x19, 0x37, 0xbd, 0xc4, 0x11, 0x93, 0xbd,
 0x5f, 0xa7, 0x94, 0xbe, 0xd5, 0x73, 0xb3, 0x3e, 0xcd, 0x1b, 0x93, 0x3c,
 0xfa, 0xf5, 0x15, 0x3d, 0x60, 0x49, 0x58, 0x3e, 0x79, 0x1f, 0x81, 0xbd,
 0xfa, 0xa2, 0x39, 0x3e, 0x14, 0xfb, 0x8a, 0xbe, 0x73, 0x4b, 0xb3, 0xbd,
 0x6d, 0xb3, 0x83, 0x3d, 0x67, 0xe8, 0xa7, 0xbd, 0x3a, 0xd0, 0xf3, 0xbc,
 0x02, 0x4f, 0x44, 0xbd, 0x57, 0x94, 0xa9, 0xbe, 0xf1, 0x7f, 0xdb, 0xbd,
 0x93, 0x1b, 0x4f, 0xbd, 0x71, 0xbc, 0x6c, 0x3e, 0xaa, 0xa6, 0xab, 0xbd,
 0xce, 0x40, 0xba, 0xbd, 0x35, 0x51, 0xa0, 0xbd, 0x07, 0x1f, 0x97, 0x3d,
 0xf4, 0xcf, 0xf0, 0x3c, 0x28, 0xbe, 0x91, 0x3e, 0x7f, 0xe8, 0x1b, 0xbe,
 0x86, 0x2c, 0x88, 0xbe, 0x62, 0xda, 0xc6, 0x3c, 0xd9, 0x11, 0x87, 0x3e,
 0xd5, 0x9b, 0xa9, 0xbe, 0x46, 0x80, 0x9d, 0x3e, 0xe7, 0x7d, 0x6d, 0x3e,
 0x44, 0x04, 0x90, 0x3e, 0xb6, 0xea, 0xfd, 0xbd, 0x1d, 0xd2, 0x04, 0xbd,
 0x3b, 0xe6, 0xb9, 0x3c, 0x22, 0x8d, 0x1a, 0xbe, 0x1b, 0x9a, 0xa0, 0xbc,
 0x0e, 0x39, 0x8d, 0x3e, 0xd6, 0xdf, 0xff, 0xff, 0x04, 0x00, 0x00, 0x00,
 0x00, 0x01, 0x00, 0x00, 0x44, 0x18, 0x0a, 0x3e, 0xf2, 0x3e, 0xd8, 0x3d,
 0x6a, 0xd0, 0xdc, 0x3c, 0x82, 0xb0, 0x42, 0xbd, 0x91, 0x73, 0x76, 0x3e,
 0xad, 0x17, 0xee, 0xbd, 0xac, 0x04, 0xcc, 0xbd, 0x27, 0x66, 0x1c, 0xbc,
 0xc1, 0xe1, 0x8f, 0x3e, 0x9e, 0xd2, 0x9e, 0x3e, 0x49, 0x7f, 0x4d, 0x3e,
 0x94, 0xb4, 0xa6, 0xbe, 0xe8, 0x7d, 0x1e, 0x3e, 0xb5, 0x41, 0x8e, 0xbe,
 0x31, 0x1e, 0x80, 0x3e, 0x0a, 0x43, 0xec, 0x3d, 0xda, 0xa7, 0xc5, 0x3d,
 0xf4, 0x27, 0xce, 0xbd, 0x3b, 0x1b, 0x64, 0xbe, 0x41, 0x9e, 0xa6, 0xbe,
 0xa3, 0x60, 0x16, 0xbe, 0x01, 0x47, 0x5e, 0x3e, 0xf3, 0x18, 0x19, 0xbe,
 0x0b, 0x05, 0x64, 0xbe, 0xa1, 0x3c, 0x79, 0xbd, 0x79, 0xc6, 0x16, 0x3e,
 0x7a, 0x6c, 0x7e, 0x3e, 0x7d, 0xd8, 0x97, 0xba, 0x55, 0x12, 0x3f, 0xbe,
 0x58, 0xdb, 0x89, 0xbe, 0xaa, 0x13, 0xad, 0xbb, 0x2f, 0xa6, 0x76, 0x3e,
 0x2f, 0x79, 0x81, 0x3e, 0x9b, 0xc9, 0x1d, 0x3d, 0x23, 0xf5, 0x28, 0x3e,
 0x84, 0x1b, 0x86, 0xbe, 0x6d, 0x9b, 0x29, 0x3e, 0x4e, 0xa7, 0x05, 0xbe,
 0x90, 0xf0, 0xa6, 0xbd, 0x25, 0x1b, 0xae, 0x3e, 0xd3, 0xc8, 0x71, 0xbe,
 0xef, 0x3b, 0x27, 0xbe, 0x37, 0xaf, 0x93, 0xbe, 0xa2, 0x51, 0xa5, 0xbe,
 0xde, 0x4c, 0x02, 0xbe, 0x74, 0x59, 0x30, 0x3d, 0xd2, 0x2a, 0x29, 0x3e,
 0x00, 0x10, 0x76, 0xbe, 0xbe, 0x13, 0xee, 0x3d, 0x18, 0x99, 0xc9, 0xbd,
 0xff, 0xe7, 0x5b, 0xbe, 0x9c, 0xd2, 0xac, 0xbc, 0x2d, 0x27, 0x48, 0xbe,
 0xdd, 0xf4, 0xb0, 0xbd, 0x29, 0x33, 0x9f, 0xbd, 0x45, 0xee, 0xd3, 0x3d,
 0x6d, 0x18, 0x89, 0xbe, 0x6e, 0xa4, 0x5e, 0xbe, 0xfe, 0x02, 0x5d, 0x3e,
 0x85, 0xe6, 0x02, 0xbe, 0x6e, 0x92, 0x69, 0xbe, 0x60, 0xca, 0xf6, 0xbd,
 0xb3, 0x94, 0x6e, 0xbe, 0xf8, 0x9d, 0x3e, 0x3c, 0xe2, 0xe0, 0xff, 0xff,
 0x04, 0x00, 0x00, 0x00, 0x00, 0x01, 0x00, 0x00, 0x88, 0x84, 0x43, 0x3e,
 0x5c, 0x5a, 0x6b, 0x3e, 0xc7, 0x87, 0xe5, 0xbd, 0x9e, 0x01, 0x3f, 0x3e,
 0x82, 0x2b, 0x68, 0xbd, 0x4b, 0x4e, 0x28, 0xbe, 0x51, 0x3e, 0x19, 0x3e,
 0x5d, 0x9b, 0x9d, 0xbe, 0x03, 0xee, 0xc5, 0xbd, 0x91, 0x1a, 0x5a, 0x3b,
 0x0a, 0x5d, 0x72, 0x3d, 0x5e, 0x1b, 0x20, 0xbe, 0x53, 0x25, 0x15, 0xbe,
 0x30, 0x2b, 0xb7, 0x3d, 0x43, 0xea, 0x86, 0x3e, 0xb9, 0x8c, 0xa7, 0xbe,
 0x97, 0xd9, 0x3b, 0xbe, 0x41, 0x5e, 0x90, 0xbe, 0xe0, 0xa9, 0x41, 0xbe,
 0xde, 0xbf, 0x53, 0x3c, 0xe7, 0x4c, 0x9b, 0x3c, 0xb8, 0x59, 0x9b, 0x3c,
 0x72, 0x7f, 0x76, 0xbc, 0x7b, 0xd8, 0x75, 0xbe, 0x9b, 0x32, 0xe7, 0x3d,
 0x16, 0x60, 0x91, 0xbe, 0xd0, 0xbe, 0x19, 0x3e, 0xd8, 0x22, 0xbe, 0x3c,
 0x8b, 0x3a, 0x79, 0xbe, 0xab, 0x25, 0x9d, 0x3d, 0x6c, 0xe4, 0xb4, 0xbc,
 0x50, 0xc5, 0x84, 0x3e, 0x7a, 0xce, 0x93, 0xbd, 0xa9, 0xd1, 0x1b, 0xbe,
 0xbd, 0xff, 0x09, 0xbe, 0x29, 0x56, 0xd2, 0xbd, 0x60, 0x27, 0x6c, 0xbe,
 0x19, 0x21, 0x40, 0xbe, 0xdf, 0xa3, 0xae, 0xbe, 0x03, 0x5f, 0x1d, 0x3d,
 0xed, 0x27, 0xfd, 0x3d, 0xf6, 0x52, 0xb3, 0x3e, 0xb3, 0x9e, 0x46, 0xbe,
 0xa3, 0x71, 0x84, 0xbd, 0xc2, 0xa0, 0x39, 0x3d, 0x0e, 0xf9, 0xad, 0x3e,
 0x57, 0x18, 0x44, 0x3c, 0xad, 0x24, 0xa9, 0xbd, 0x57, 0xaf, 0xf8, 0xbd,
 0x6e, 0xc3, 0x9a, 0xbe, 0x3f, 0x30, 0xb3, 0x3d, 0x57, 0xa6, 0xb0, 0x3e,
 0x17, 0xf3, 0x28, 0x3e, 0xc7, 0xd4, 0x8e, 0x3d, 0x75, 0xfd, 0x97, 0xbe,
 0x3e, 0x2d, 0x22, 0x3d, 0x59, 0xc6, 0xb1, 0x3e, 0xd4, 0xe8, 0x08, 0x3e,
 0xe6, 0xe6, 0x90, 0x3e, 0x38, 0xf9, 0x85, 0xbe, 0x21, 0x61, 0xa2, 0x3d,
 0x12, 0xdc, 0x8e, 0xbd, 0xe2, 0xc0, 0x95, 0x3e, 0x63, 0x00, 0x95, 0xbe,
 0xee, 0xe1, 0xff, 0xff, 0x04, 0x00, 0x00, 0x00, 0x00, 0x01, 0x00, 0x00,
 0x61, 0xc7, 0x6e, 0x3e, 0x49, 0xde, 0x37, 0xbd, 0xa2, 0x90, 0x81, 0xbe,
 0x1a, 0x74, 0x3d, 0x3c, 0x94, 0xb4, 0xac, 0x3d, 0xcf, 0x82, 0x71, 0x3d,
 0x53, 0x3c, 0x8f, 0xbd, 0x77, 0x7a, 0xda, 0xbd, 0x10, 0x2c, 0x5d, 0x3e,
 0x84, 0x67, 0x7c, 0x3e, 0x2a, 0xbc, 0x4f, 0xbe, 0x7d, 0xad, 0x30, 0x3e,
 0xe7, 0x77, 0x9e, 0x3e, 0xb9, 0xf6, 0x48, 0x3e, 0xeb, 0xbf, 0x9d, 0x3e,
 0x15, 0xcf, 0xaf, 0x3e, 0xb3, 0x34, 0x94, 0x3d, 0xd3, 0xd6, 0x87, 0xbd,
 0x8d, 0x6f, 0x8f, 0xbe, 0x24, 0x74, 0xad, 0xbe, 0xee, 0x4d, 0x47, 0xbe,
 0xf0, 0x9b, 0x35, 0xbe, 0x9d, 0x14, 0x3e, 0xbd, 0x7f, 0x11, 0x51, 0x3e,
 0x8b, 0x48, 0x01, 0x3e, 0xba, 0x7c, 0xc8, 0xbd, 0xa2, 0xbb, 0x53, 0x3e,
 0xf2, 0xd3, 0x02, 0xbe, 0xdf, 0x81, 0xa8, 0x3e, 0xd8, 0x8c, 0x6e, 0xbe,
 0x9f, 0x14, 0x1f, 0x3e, 0x09, 0x51, 0x89, 0xbe, 0x67, 0xe1, 0x7e, 0x3e,
 0x16, 0x00, 0x84, 0x3e, 0x9e, 0x43, 0x5d, 0xbe, 0xbf, 0xe4, 0x86, 0x3e,
 0xce, 0x78, 0x44, 0xbe, 0x1d, 0xdb, 0x35, 0xbe, 0xcc, 0xa4, 0x51, 0x3e,
 0x59, 0x34, 0x87, 0x3e, 0xfa, 0x7b, 0x52, 0xbe, 0x06, 0x96, 0xe6, 0xbd,
 0xf9, 0x0c, 0xa6, 0x3e, 0xf5, 0xa0, 0x17, 0xbe, 0x4f, 0x59, 0x95, 0x3e,
 0xd4, 0xba, 0xb4, 0xbe, 0x50, 0x50, 0x90, 0x3e, 0xd9, 0x29, 0x36, 0x3e,
 0xc1, 0xb6, 0x80, 0xbd, 0xa7, 0xdb, 0x51, 0x3e, 0xa5, 0xf1, 0x06, 0xbe,
 0x98, 0x2a, 0x98, 0xbe, 0x7a, 0x2c, 0x96, 0x3e, 0xc7, 0x6b, 0x76, 0xbd,
 0xb4, 0x93, 0x64, 0x3e, 0x87, 0xaf, 0xa2, 0xbe, 0x28, 0x02, 0xa2, 0xbe,
 0x2b, 0x2d, 0x97, 0x3d, 0x55, 0x23, 0x31, 0x3d, 0xc5, 0x42, 0x87, 0xbe,
 0x27, 0x3a, 0x08, 0xbd, 0x1f, 0xa3, 0x91, 0xbe, 0xea, 0x13, 0x5c, 0x3e,
 0x4b, 0xfa, 0xb0, 0xbe, 0xfa, 0xe2, 0xff, 0xff, 0x04, 0x00, 0x00, 0x00,
 0x00, 0x01, 0x00, 0x00, 0x65, 0x1c, 0x87, 0xbe, 0x4a, 0x49, 0x88, 0x3e,
 0x88, 0x22, 0x99, 0x3e, 0x05, 0x57, 0xf4, 0x3b, 0xb3, 0xe6, 0x29, 0xbe,
 0xc8, 0x40, 0x30, 0xbe, 0x49, 0x43, 0x46, 0xbd, 0xba, 0xcb, 0xae, 0xbd,
 0x0b, 0xa6, 0x38, 0x3e, 0x3c, 0x7f, 0x35, 0x3e, 0x9b, 0xf2, 0x56, 0xbd,
 0xc1, 0x1a, 0x60, 0x3c, 0x46, 0xb3, 0x8f, 0x3e, 0xd8, 0xeb, 0x93, 0xbd,
 0xbf, 0x1b, 0xc3, 0xbd, 0x54, 0x4a, 0xc3, 0xbd, 0xda, 0xf1, 0x1c, 0x3e,
 0xdb, 0xa9, 0x81, 0xbe, 0xa3, 0x34, 0x86, 0xbe, 0xc4, 0x0b, 0xac, 0xbe,
 0x24, 0x48, 0x92, 0x3e, 0x82, 0x01, 0xef, 0x3c, 0x8d, 0x74, 0x22, 0xbe,
 0xaa, 0x16, 0x9b, 0xbe, 0xe5, 0x36, 0x93, 0x3e, 0xb4, 0xb1, 0x59, 0x3e,
 0xef, 0xc0, 0x2c, 0xbc, 0x6d, 0x13, 0xb1, 0xbe, 0x1f, 0x61, 0x62, 0x3e,
 0x64, 0x7d, 0x54, 0xbe, 0xa6, 0x86, 0x22, 0x3e, 0xef, 0x24, 0x8e, 0xbe,
 0xc1, 0x85, 0x8f, 0xbd, 0x11, 0x96, 0x9d, 0xbe, 0x5b, 0xb4, 0xf4, 0x3c,
 0xa6, 0xc2, 0x73, 0x3e, 0x17, 0x78, 0xf1, 0xbd, 0x5d, 0x3a, 0xb4, 0xbe,
 0x8c, 0xbe, 0x8a, 0x3e, 0x75, 0x66, 0x97, 0x3e, 0x3f, 0x25, 0xe1, 0xbc,
 0x10, 0x70, 0x99, 0xbe, 0xf4, 0xe7, 0xa0, 0xbd, 0x4a, 0x6f, 0x3c, 0x3e,
 0x46, 0x4f, 0x00, 0x3d, 0x7c, 0x62, 0x96, 0xbe, 0x19, 0x27, 0x1c, 0xbe,
 0x0c, 0x15, 0xa0, 0xbe, 0x76, 0x69, 0x88, 0x3e, 0xca, 0xdf, 0x8e, 0xbe,
 0x8a, 0x8e, 0x9c, 0xbe, 0x1b, 0x7f, 0x54, 0x3e, 0x0f, 0xb3, 0x3c, 0x3e,
 0x01, 0x0f, 0x13, 0xbe, 0x77, 0x36, 0xa5, 0x3d, 0x6b, 0x56, 0x68, 0xbd,
 0x4a, 0x24, 0xc9, 0x3d, 0x8f, 0x72, 0x4d, 0xbe, 0x63, 0xb2, 0x9b, 0xbe,
 0x6a, 0xcf, 0x1c, 0x3e, 0x7a, 0x55, 0x49, 0xbe, 0x4d, 0x31, 0x89, 0xbe,
 0xd8, 0x3c, 0x44, 0xbe, 0x04, 0x9c, 0x9c, 0xbe, 0x06, 0xe4, 0xff, 0xff,
 0x04, 0x00, 0x00, 0x00, 0x00, 0x01, 0x00, 0x00, 0x77, 0xe7, 0x53, 0x3c,
 0x6b, 0xcc, 0xd3, 0xbd, 0x34, 0xda, 0x6f, 0xbe, 0xa7, 0xa2, 0x53, 0x3d,
 0x50, 0x87, 0xa5, 0x3e, 0x48, 0x5a, 0xb2, 0x3d, 0x56, 0x9b, 0xb2, 0xbe,
 0x27, 0x6d, 0x82, 0x3e, 0xb5, 0x1a, 0xab, 0xbe, 0x22, 0x96, 0xa3, 0xbe,
 0x7d, 0x94, 0x36, 0x3e, 0x3c, 0x72, 0x9e, 0x3e, 0x66, 0x99, 0xaa, 0x3e,
 0xab, 0x2c, 0x8b, 0x3e, 0x26, 0x7e, 0x29, 0x3d, 0x16, 0x5e, 0x86, 0x3e,
 0xa1, 0x3d, 0x93, 0x3d, 0x5c, 0x0c, 0x94, 0xbe, 0xdb, 0x3f, 0xc7, 0xbc,
 0x4f, 0x42, 0xa4, 0xbe, 0x5c, 0xb8, 0xc9, 0xbb, 0x54, 0xf1, 0x27, 0x3d,
 0x53, 0x50, 0x74, 0x3e, 0xf9, 0x9e, 0xa7, 0xbe, 0x34, 0xf0, 0xf7, 0x3c,
 0xce, 0xd5, 0x71, 0x3d, 0xb5, 0x67, 0x5e, 0xbc, 0x9b, 0x0b, 0x8a, 0x3e,
 0x35, 0xc0, 0xa1, 0x3e, 0x43, 0x46, 0x19, 0x3e, 0x2f, 0x65, 0x84, 0xbe,
 0xc3, 0x58, 0x68, 0x3d, 0xb5, 0xec, 0xaf, 0x3e, 0xfe, 0x37, 0xa0, 0xbe,
 0x58, 0x7c, 0x58, 0xbe, 0x17, 0x24, 0xb4, 0xbd, 0xfe, 0x22, 0xaf, 0xbe,
 0x93, 0xb0, 0x84, 0xbe, 0x50, 0xc8, 0xad, 0xbe, 0x3e, 0xe9, 0xbc, 0x3d,
 0xe1, 0x88, 0x59, 0xbe, 0x2a, 0xc3, 0xf8, 0x3d, 0x71, 0x3b, 0x76, 0xbe,
 0xd6, 0x27, 0x60, 0xbe, 0xf6, 0x31, 0x93, 0xbd, 0x76, 0x40, 0xf3, 0x3d,
 0xfe, 0x64, 0x2b, 0x3d, 0x9b, 0xf2, 0xa5, 0xbe, 0x42, 0xfd, 0x8a, 0xbd,
 0x07, 0x3b, 0x16, 0x3e, 0xbf, 0x5c, 0x71, 0xbe, 0xc9, 0x7c, 0xf8, 0x3d,
 0xb1, 0x91, 0xa4, 0xbe, 0x20, 0x4e, 0xbb, 0xbd, 0xf9, 0xa5, 0xeb, 0x3d,
 0xcf, 0x54, 0xa4, 0xbe, 0x15, 0x46, 0x02, 0x3e, 0xd0, 0x5d, 0x59, 0x3d,
 0xee, 0xe7, 0xc6, 0x3d, 0x1e, 0xef, 0x9f, 0xbd, 0xd7, 0x79, 0xaa, 0xbe,
 0xf9, 0xf8, 0x99, 0x3e, 0xa4, 0x61, 0x38, 0x3e, 0x94, 0x88, 0x4d, 0x3e,
 0x12, 0xe5, 0xff, 0xff, 0x04, 0x00, 0x00, 0x00, 0x00, 0x01, 0x00, 0x00,
 0x56, 0x96, 0x59, 0xbd, 0x64, 0x25, 0x5a, 0xbe, 0xdc, 0xc1, 0x84, 0xbe,
 0xbb, 0x38, 0xe6, 0x3d, 0x00, 0xb8, 0x6e, 0x3e, 0x72, 0x09, 0x83, 0xbe,
 0xbe, 0x9b, 0x82, 0xbd, 0xd1, 0x70, 0x0d, 0xbd, 0x6e, 0x11, 0x29, 0xbd,
 0x71, 0xc5, 0xa1, 0xbe, 0x55, 0xf8, 0xbc, 0x3d, 0x65, 0xd0, 0xf9, 0x3d,
 0x9b, 0x6f, 0xbf, 0x3d, 0x3f, 0xe8, 0x51, 0xbe, 0xbb, 0x91, 0x95, 0x3e,
 0x1e, 0x58, 0x12, 0x3e, 0xc6, 0xa3, 0xab, 0xbe, 0xcc, 0xd6, 0x88, 0xbd,
 0x51, 0xac, 0xb4, 0xbe, 0xee, 0x64, 0x13, 0xbe, 0x9e, 0x7b, 0xbc, 0x3d,
 0x11, 0x83, 0xaf, 0xbd, 0x5a, 0xbe, 0x62, 0xbe, 0xc0, 0xfd, 0x40, 0xbe,
 0x7a, 0xe6, 0xb0, 0x3d, 0x28, 0x01, 0x85, 0xbe, 0x3f, 0xc0, 0x98, 0x3e,
 0xed, 0x52, 0x10, 0x3e, 0x4f, 0x19, 0x95, 0xbe, 0xda, 0x8f, 0x93, 0x3d,
 0xcd, 0xd4, 0xa3, 0xbd, 0xa7, 0x9f, 0xfc, 0x3d, 0x0a, 0x97, 0x30, 0x3e,
 0xc2, 0xbe, 0xa1, 0x3b, 0xfa, 0x9d, 0xa4, 0x3e, 0x25, 0x71, 0xff, 0x3d,
 0xc4, 0xf5, 0x63, 0xbe, 0x64, 0xfd, 0x6d, 0x3e, 0x9a, 0xb7, 0x86, 0xbe,
 0x98, 0x68, 0x81, 0x3d, 0x76, 0x86, 0xa8, 0x3d, 0x89, 0x25, 0x2c, 0x3e,
 0x92, 0xba, 0xb0, 0xbd, 0xa7, 0x5e, 0x72, 0x3e, 0x6b, 0x63, 0x7e, 0x3e,
 0xe9, 0x8b, 0xa8, 0xbe, 0x99, 0x55, 0x2e, 0xbe, 0xdd, 0xbb, 0xa1, 0xbe,
 0x4d, 0xa4, 0x7f, 0xbe, 0x16, 0x7a, 0x46, 0x3d, 0x98, 0x67, 0xc5, 0xbc,
 0x72, 0x13, 0x8b, 0x3e, 0xba, 0x24, 0x83, 0x3e, 0x8a, 0xa0, 0x15, 0x3e,
 0x5d, 0xb4, 0x97, 0xbe, 0x75, 0xab, 0xf3, 0x3d, 0xa2, 0xb1, 0xa4, 0x3e,
 0xbf, 0x56, 0x1d, 0x3d, 0x62, 0xbf, 0x90, 0xbe, 0xb7, 0x40, 0x54, 0xbe,
 0xb4, 0x12, 0xb2, 0x3e, 0x40, 0x37, 0xab, 0xbc, 0xc2, 0x31, 0x3a, 0x3d,
 0x42, 0x95, 0xe9, 0xbd, 0x1e, 0xe6, 0xff, 0xff, 0x04, 0x00, 0x00, 0x00,
 0x00, 0x01, 0x00, 0x00, 0x0e, 0x3f, 0x2c, 0x3e, 0x9e, 0xeb, 0x2d, 0x3e,
 0x17, 0xbe, 0x48, 0xbd, 0x66, 0x4f, 0x6b, 0xbe, 0x68, 0xcb, 0x89, 0x3e,
 0x84, 0xef, 0xbc, 0xbc, 0x6b, 0xd6, 0xa2, 0xbe, 0x40, 0x68, 0x23, 0xbe,
 0x58, 0x67, 0xa1, 0xbe, 0xf1, 0x4e, 0x37, 0x3e, 0xa2, 0x35, 0x89, 0x3e,
 0x9d, 0x29, 0x8a, 0x3d, 0x0b, 0x10, 0x3d, 0xba, 0x48, 0xc4, 0x98, 0xbe,
 0x9b, 0xe6, 0xb2, 0x3e, 0xe1, 0x2f, 0x9d, 0x3e, 0xad, 0xa9, 0xaa, 0xbd,
 0xad, 0x4c, 0x91, 0x3e, 0x02, 0x09, 0x3d, 0x3e, 0x99, 0xe8, 0x08, 0xbe,
 0x0b, 0x58, 0xac, 0xbe, 0x13, 0x6b, 0xfe, 0x3d, 0x1a, 0x58, 0x52, 0xbe,
 0xd6, 0x76, 0x1c, 0xbe, 0x37, 0x52, 0x9d, 0x3e, 0xd6, 0x12, 0x97, 0x3e,
 0x35, 0x1e, 0xa8, 0xbd, 0x5c, 0xa2, 0x37, 0xbd, 0xb7, 0xfc, 0x7a, 0xbd,
 0xb2, 0xb8, 0xa5, 0x3e, 0x06, 0x31, 0x85, 0xbe, 0x20, 0xe1, 0xa2, 0xbe,
 0x7b, 0x77, 0x94, 0x3e, 0x2e, 0xc7, 0x83, 0x3d, 0x99, 0x42, 0xb1, 0x3e,
 0xfc, 0x18, 0xb3, 0x3e, 0x15, 0x08, 0x34, 0xbe, 0x9e, 0xd7, 0x60, 0x3e,
 0x1b, 0x91, 0x86, 0xbe, 0xe7, 0x41, 0x18, 0x3e, 0xca, 0xd9, 0xdf, 0xbc,
 0x58, 0xb0, 0x01, 0xbe, 0x18, 0x6a, 0x51, 0x3e, 0x8b, 0x91, 0x93, 0xbe,
 0xcd, 0xad, 0x4f, 0x3e, 0x9f, 0x50, 0x0f, 0x3e, 0xc3, 0x5b, 0x7e, 0xbe,
 0x77, 0x20, 0x41, 0x3d, 0x00, 0x63, 0xc5, 0xbd, 0x0c, 0x49, 0x08, 0x3d,
 0xc5, 0xfe, 0x19, 0x3e, 0x72, 0x63, 0x09, 0x3e, 0xcb, 0xd0, 0xf9, 0xbd,
 0x3b, 0x35, 0x8f, 0x3e, 0xca, 0x96, 0x44, 0xbe, 0xb4, 0xa8, 0x9d, 0x3d,
 0xb3, 0x1d, 0xb5, 0x3c, 0x43, 0x5a, 0xbe, 0xbd, 0x64, 0xd8, 0xa2, 0xbe,
 0x87, 0x7d, 0x2e, 0xbd, 0x07, 0xaa, 0x4a, 0xbe, 0x4e, 0xda, 0xd1, 0x3d,
 0x71, 0x63, 0x21, 0xbe, 0x3b, 0xd3, 0x8a, 0x3e, 0x2a, 0xe7, 0xff, 0xff,
 0x04, 0x00, 0x00, 0x00, 0x00, 0x01, 0x00, 0x00, 0xc5, 0x31, 0x16, 0x3e,
 0xa0, 0x51, 0x2b, 0xbe, 0x6a, 0x95, 0x47, 0xbc, 0xad, 0x08, 0x6f, 0xbe,
 0x5b, 0xf2, 0xb2, 0xbc, 0x35, 0x84, 0x24, 0x3d, 0x15, 0xac, 0x3f, 0x3d,
 0xf1, 0xfd, 0x9b, 0x3e, 0x72, 0x02, 0x4b, 0xbe, 0xa4, 0xa7, 0x84, 0x3d,
 0x84, 0xe8, 0x9e, 0x3d, 0x94, 0x0a, 0xcb, 0xbd, 0xa4, 0xaa, 0x98, 0x3e,
 0xf6, 0x4f, 0x3b, 0xbe, 0x69, 0x84, 0x1b, 0xbd, 0x81, 0x7d, 0x08, 0x3c,
 0x98, 0x1f, 0x27, 0xbe, 0x76, 0xf5, 0x2d, 0xbe, 0x97, 0x64, 0x9f, 0xbd,
 0xf8, 0x9b, 0x84, 0xbe, 0x13, 0x8b, 0xd3, 0xbd, 0x97, 0x10, 0x0e, 0x3e,
 0xfa, 0xa1, 0x91, 0xbe, 0x94, 0xee, 0xa5, 0xbe, 0xd7, 0xd0, 0xa1, 0xbe,
 0x8b, 0x84, 0x73, 0x3e, 0x89, 0x9d, 0x86, 0xbe, 0x6b, 0xaf, 0x33, 0xbe,
 0x87, 0x85, 0x79, 0xbe, 0x60, 0xe9, 0x6e, 0xbd, 0xd3, 0xe5, 0x7a, 0x3d,
 0x00, 0xab, 0xa5, 0x3e, 0x8e, 0x0b, 0x14, 0x3e, 0xa1, 0xca, 0xa1, 0xbe,
 0xff, 0x0d, 0x59, 0x3e, 0x0c, 0xdf, 0x87, 0xbd, 0xbd, 0x07, 0x8b, 0x3e,
 0x23, 0x31, 0x7e, 0x3d, 0x05, 0xf3, 0x1a, 0xbe, 0xde, 0x0e, 0x94, 0x3c,
 0xc3, 0x8c, 0x21, 0xbe, 0xa1, 0x4a, 0xa7, 0xbc, 0x4f, 0x62, 0x6e, 0x3e,
 0x1c, 0x26, 0xbb, 0x3d, 0xdd, 0x9f, 0x04, 0xbd, 0xec, 0xd4, 0xdc, 0x3d,
 0xeb, 0xe4, 0x52, 0xbe, 0x28, 0xbe, 0x80, 0x3d, 0x21, 0xe8, 0xad, 0xbe,
 0x2d, 0x42, 0x66, 0xbe, 0x44, 0xbc, 0xdf, 0xbd, 0xd8, 0x4d, 0x7f, 0xbe,
 0x68, 0x6a, 0x05, 0xbe, 0x8a, 0x62, 0x1e, 0xbe, 0xfa, 0x3d, 0xd8, 0xbc,
 0x2c, 0x11, 0x45, 0xbe, 0x92, 0x38, 0x96, 0xbe, 0x04, 0x1f, 0x32, 0x3d,
 0x50, 0xcc, 0x54, 0x3e, 0x90, 0xfb, 0x55, 0xbc, 0x9f, 0xea, 0xed, 0x3d,
 0xe6, 0xd7, 0x9d, 0xbe, 0x4b, 0x99, 0xa7, 0xbe, 0x55, 0xd2, 0x37, 0x3e,
 0x36, 0xe8, 0xff, 0xff, 0x04, 0x00, 0x00, 0x00, 0x00, 0x01, 0x00, 0x00,
 0xf8, 0x16, 0x35, 0x3e, 0x3f, 0xd4, 0x7a, 0xbe, 0x40, 0xf5, 0x8e, 0xbe,
 0x5f, 0xe5, 0x96, 0xbe, 0xa8, 0x09, 0xb1, 0xbd, 0xc5, 0x1b, 0x75, 0xbd,
 0xb1, 0x24, 0x09, 0xbd, 0x09, 0x10, 0x5a, 0x3e, 0xa7, 0xbe, 0x33, 0x3e,
 0x41, 0x46, 0x4b, 0xbe, 0xb3, 0xf0, 0xe8, 0x3c, 0xcc, 0x58, 0xa6, 0x3e,
 0x52, 0xd0, 0x91, 0xbe, 0xe3, 0xfe, 0x98, 0xbe, 0x98, 0xfd, 0xab, 0x3d,
 0x8d, 0xb8, 0xd3, 0xbd, 0xd8, 0xcc, 0x47, 0xbe, 0x5c, 0xfd, 0x12, 0x3e,
 0xcf, 0xce, 0x2e, 0x3e, 0x18, 0x98, 0xf0, 0x3d, 0x35, 0x6f, 0xbf, 0xbd,
 0x1c, 0xfb, 0x6c, 0x3e, 0xfc, 0x32, 0x8f, 0x3e, 0xb5, 0x2b, 0x6a, 0x3e,
 0xb1, 0xdb, 0xac, 0xbd, 0xa5, 0x34, 0x2b, 0x3d, 0x34, 0xe4, 0xc9, 0x3c,
 0xe5, 0x10, 0xa7, 0xbe, 0x15, 0x29, 0x6f, 0xbe, 0xce, 0x52, 0xcd, 0x3d,
 0x01, 0x8b, 0xad, 0x3e, 0x71, 0x4c, 0x44, 0x3d, 0xc8, 0x09, 0xfa, 0x3b,
 0xa0, 0xad, 0x3e, 0xbe, 0x0a, 0xa6, 0x41, 0xbe, 0x9c, 0x1d, 0x85, 0x3e,
 0x07, 0x88, 0x98, 0x3e, 0x55, 0xa2, 0xe2, 0xbd, 0x69, 0xa2, 0x80, 0xbe,
 0xc6, 0x62, 0xa3, 0x3e, 0x45, 0xed, 0xaa, 0xbe, 0x3b, 0x7e, 0xd0, 0x3d,
 0x27, 0xcb, 0x9f, 0x3e, 0x5e, 0x69, 0x27, 0x3e, 0x47, 0x17, 0x66, 0xbe,
 0xc0, 0x60, 0xb0, 0x3e, 0x6c, 0xb8, 0x9c, 0x3d, 0x42, 0xab, 0x8d, 0xbe,
 0x0b, 0x19, 0x8d, 0xbe, 0xeb, 0xba, 0xb4, 0x3e, 0xec, 0x35, 0x4f, 0xbe,
 0x3e, 0x81, 0x95, 0x3e, 0xdb, 0x06, 0x4f, 0x3e, 0x09, 0x5d, 0x3a, 0xbe,
 0xe7, 0x63, 0x4e, 0xbd, 0x4c, 0x00, 0x74, 0x3e, 0x22, 0x6c, 0x7a, 0x3e,
 0xf4, 0x9e, 0x05, 0xbe, 0x35, 0xf9, 0x10, 0x3d, 0xdf, 0x64, 0xbe, 0xba,
 0xd2, 0xe7, 0x5f, 0xbe, 0x67, 0xf5, 0xc7, 0x3d, 0x8f, 0xcb, 0x95, 0xbe,
 0x29, 0x9b, 0x51, 0xbe, 0x42, 0xe9, 0xff, 0xff, 0x04, 0x00, 0x00, 0x00,
 0x00, 0x01, 0x00, 0x00, 0x04, 0x40, 0x7c, 0x3e, 0x02, 0xfa, 0xca, 0xbc,
 0x74, 0xe3, 0x98, 0xbe, 0x64, 0x16, 0xd5, 0x3d, 0xeb, 0x9e, 0xf9, 0xbc,
 0x8d, 0x9b, 0x3e, 0x3e, 0x61, 0x00, 0xa9, 0xbe, 0xca, 0x5c, 0x7e, 0x3e,
 0xf1, 0x3b, 0x00, 0xbe, 0x83, 0xa2, 0x48, 0xbd, 0xce, 0xdc, 0xc8, 0x3d,
 0xed, 0x78, 0x70, 0x3e, 0x82, 0x0f, 0x3a, 0xbe, 0x39, 0x86, 0x86, 0xbc,
 0x63, 0x5a, 0xc0, 0xbc, 0xfb, 0xf7, 0xcd, 0xbd, 0x32, 0x5b, 0xac, 0x3c,
 0xfd, 0xf8, 0x6e, 0x3e, 0x64, 0x46, 0xa5, 0x3e, 0x26, 0xf1, 0x9b, 0xbe,
 0xab, 0xa6, 0xe1, 0xbd, 0xf8, 0x13, 0xc7, 0x3d, 0xd8, 0x06, 0x9d, 0x3d,
 0xa2, 0xf0, 0x7d, 0x3e, 0xc9, 0x1e, 0x45, 0xbe, 0x28, 0xa0, 0x42, 0xbc,
 0x0f, 0xe2, 0xa7, 0xbe, 0xa6, 0xfe, 0x65, 0x3e, 0x10, 0x89, 0xa1, 0x3e,
 0xd7, 0x58, 0x70, 0x3e, 0x80, 0x7d, 0x22, 0x3c, 0x85, 0x1a, 0x93, 0xbd,
 0xed, 0x6e, 0x2b, 0x3e, 0xd4, 0xf3, 0x86, 0x3e, 0xea, 0x70, 0x7f, 0xbe,
 0x22, 0xfb, 0x78, 0x3e, 0xa0, 0x53, 0x87, 0x3e, 0x72, 0xa3, 0x1f, 0x3e,
 0x90, 0xef, 0x9a, 0x3e, 0x08, 0x3a, 0x83, 0x3e, 0x7e, 0x75, 0x4c, 0xbe,
 0x83, 0x12, 0x88, 0x3e, 0x79, 0x78, 0xaf, 0xbe, 0xe8, 0xbc, 0x81, 0x3e,
 0x76, 0x90, 0x37, 0x3e, 0x07, 0x57, 0x98, 0x3e, 0x4b, 0x6f, 0x91, 0xbb,
 0x9c, 0x1d, 0x0b, 0xbd, 0x54, 0x79, 0x08, 0x3e, 0xeb, 0xcf, 0x53, 0xbe,
 0xa0, 0x33, 0xab, 0x3c, 0x37, 0x8b, 0x19, 0x3e, 0x4c, 0xe2, 0xdb, 0x3b,
 0x89, 0x3f, 0x5c, 0x3e, 0x95, 0x08, 0x94, 0x3e, 0x4e, 0x17, 0x6b, 0xbe,
 0xa8, 0x78, 0x38, 0x3c, 0xa1, 0x9d, 0x9a, 0x3c, 0x37, 0xd6, 0x51, 0x3e,
 0x4d, 0x47, 0x0c, 0x3e, 0x8a, 0x29, 0x2d, 0xbd, 0x18, 0xbe, 0x5c, 0xbe,
 0x1c, 0x81, 0xad, 0x3e, 0x72, 0x39, 0x3f, 0x3e, 0x4e, 0xea, 0xff, 0xff,
 0x04, 0x00, 0x00, 0x00, 0x00, 0x01, 0x00, 0x00, 0x5d, 0x74, 0x4e, 0x3e,
 0x05, 0x2b, 0x10, 0x3e, 0xda, 0xcc, 0xaa, 0x3e, 0xfc, 0x9a, 0xba, 0x3c,
 0x0e, 0xa2, 0x53, 0xbe, 0x81, 0xeb, 0xed, 0xbd, 0xcd, 0x27, 0xb4, 0xbd,
 0x1d, 0x8e, 0x14, 0x3e, 0x88, 0x24, 0x12, 0x3e, 0x56, 0xa5, 0xb0, 0xbe,
 0x22, 0xfa, 0x25, 0x3d, 0xaa, 0x4e, 0x24, 0xbe, 0x47, 0x48, 0x9e, 0xbe,
 0x61, 0xcd, 0x9b, 0xbe, 0x0f, 0x72, 0xc7, 0xbd, 0x26, 0x2e, 0x7d, 0x3e,
 0x45, 0x72, 0x8c, 0xbe, 0xe0, 0x2b, 0x00, 0x3d, 0x49, 0x12, 0x89, 0x3e,
 0x4a, 0x23, 0x0b, 0xbe, 0xfb, 0x59, 0xa8, 0x3c, 0x72, 0xa7, 0x90, 0xbd,
 0x49, 0x5e, 0x77, 0xbe, 0xcf, 0xa0, 0xa9, 0xbe, 0xb1, 0x1f, 0xb1, 0xbe,
 0x9d, 0xb7, 0xee, 0xbd, 0x3c, 0x09, 0x6c, 0xbd, 0x7e, 0x04, 0xc0, 0x3d,
 0xd0, 0xda, 0xa2, 0x3e, 0x33, 0xaa, 0xe2, 0xbd, 0x6a, 0x2c, 0xd7, 0x3c,
 0x20, 0x73, 0xad, 0xbc, 0x1c, 0x3b, 0xa8, 0xbe, 0x8e, 0xc7, 0xa5, 0x3d,
 0xde, 0xf8, 0xb7, 0x3d, 0xc9, 0xbe, 0x87, 0xbe, 0x35, 0x42, 0x75, 0x3e,
 0x1e, 0x2e, 0x0f, 0x3c, 0x83, 0x95, 0x7c, 0xbd, 0xfe, 0x23, 0x75, 0xbe,
 0x13, 0x82, 0x33, 0xbe, 0x2a, 0x8e, 0x81, 0xbe, 0x53, 0xad, 0x8f, 0x3e,
 0x28, 0x88, 0x88, 0x3d, 0x4a, 0xc2, 0x3b, 0xbb, 0x40, 0x8d, 0xb0, 0x3d,
 0xa5, 0x65, 0xf0, 0xbd, 0xbb, 0x12, 0x54, 0xbd, 0xf6, 0xd5, 0x68, 0x3e,
 0xec, 0xb2, 0x9b, 0x3e, 0x10, 0xac, 0x2a, 0x3e, 0xab, 0x70, 0x0a, 0xbe,
 0x59, 0x4c, 0x84, 0xbe, 0x6f, 0xb0, 0x72, 0x3e, 0x58, 0x84, 0x6d, 0x3e,
 0xb5, 0xa8, 0xa1, 0xbe, 0x4a, 0xf6, 0x5e, 0xbe, 0x49, 0xf5, 0x94, 0xbe,
 0xf7, 0x89, 0xa2, 0xbc, 0xbc, 0x4b, 0x80, 0xbe, 0x7c, 0x02, 0x70, 0xbe,
 0x72, 0xf8, 0x80, 0xbe, 0xd5, 0x96, 0x3c, 0xbe, 0x9a, 0x4b, 0x51, 0xbc,
 0x5a, 0xeb, 0xff, 0xff, 0x04, 0x00, 0x00, 0x00, 0x00, 0x01, 0x00, 0x00,
 0x17, 0x82, 0xcd, 0xbd, 0x3d, 0xe0, 0x8a, 0xbe, 0x7f, 0xb4, 0x12, 0x3e,
 0x3b, 0x7b, 0xba, 0x3d, 0x39, 0x8f, 0x76, 0xbd, 0xf0, 0x64, 0xae, 0xbe,
 0xc2, 0xa4, 0x1b, 0xbe, 0x80, 0x28, 0x12, 0x3e, 0x59, 0x96, 0x7f, 0x3e,
 0x20, 0x64, 0x8a, 0xbe, 0xf0, 0x04, 0xaf, 0x3c, 0x48, 0x88, 0x6e, 0x3d,
 0x8c, 0xbc, 0xbf, 0xbd, 0xc0, 0x99, 0x9b, 0xbe, 0x8f, 0x25, 0x90, 0xbe,
 0xbf, 0x4f, 0x29, 0x3d, 0x0c, 0x32, 0x6e, 0xbe, 0x89, 0xbf, 0xb2, 0x3e,
 0xa6, 0x63, 0xa7, 0x3e, 0x4e, 0x24, 0xa6, 0xbe, 0xa8, 0xf6, 0x9d, 0xbe,
 0x12, 0xf8, 0x27, 0x3e, 0x9a, 0x8f, 0x9f, 0x3e, 0x95, 0xc4, 0x23, 0x3d,
 0xa4, 0xd5, 0xab, 0x3e, 0x9c, 0x53, 0x45, 0xbe, 0x4f, 0xc3, 0x8a, 0x3e,
 0x20, 0x50, 0x95, 0x3e, 0x9f, 0xeb, 0x5f, 0x3e, 0x8d, 0x3a, 0x99, 0x3e,
 0xd3, 0x4f, 0x22, 0xbe, 0xbb, 0x98, 0xad, 0x3d, 0x50, 0x9b, 0x2e, 0x3d,
 0xc9, 0x38, 0x99, 0x3e, 0x16, 0x81, 0x47, 0xbc, 0x9e, 0x93, 0x89, 0xbd,
 0xad, 0x95, 0x99, 0x3d, 0x4e, 0xe6, 0x44, 0x3e, 0x5e, 0x1e, 0xe2, 0x3d,
 0x20, 0x47, 0x51, 0xbe, 0xd7, 0x1c, 0x49, 0xbd, 0x6f, 0x9a, 0x9d, 0xbe,
 0xad, 0x2a, 0x64, 0xbe, 0xfc, 0x52, 0x31, 0x3e, 0x22, 0x3f, 0x04, 0xbe,
 0x88, 0x84, 0x9d, 0x3c, 0x81, 0x72, 0x86, 0x3e, 0x0d, 0x56, 0x36, 0x3e,
 0x7e, 0xad, 0x9a, 0x3d, 0x64, 0x87, 0x02, 0x3c, 0xf8, 0x77, 0x41, 0x3d,
 0x15, 0xd8, 0x95, 0xbe, 0x25, 0x2f, 0x5f, 0xbe, 0xf4, 0x7e, 0x1d, 0xbe,
 0xe6, 0x4f, 0xf9, 0x3c, 0x1e, 0x2a, 0x1c, 0xbe, 0xb8, 0xfc, 0xb1, 0xbe,
 0xfe, 0xcb, 0x89, 0xbe, 0x62, 0xf6, 0x4c, 0xbe, 0x44, 0x96, 0xb0, 0xbd,
 0x7b, 0x15, 0xa4, 0xbd, 0xfd, 0xeb, 0x47, 0x3d, 0x73, 0x4d, 0x5b, 0xba,
 0xc8, 0x06, 0x3e, 0x3d, 0x66, 0xec, 0xff, 0xff, 0x04, 0x00, 0x00, 0x00,
 0x00, 0x01, 0x00, 0x00, 0x59, 0xd7, 0xb4, 0xbe, 0x07, 0xd6, 0x8e, 0xbe,
 0x27, 0x2d, 0x46, 0x3e, 0x7c, 0x7f, 0x95, 0x3e, 0x92, 0x52, 0x9d, 0x3e,
 0x82, 0x24, 0x89, 0xbe, 0x0b, 0x99, 0x6c, 0x3e, 0x52, 0x2d, 0xa0, 0xbd,
 0xff, 0x0b, 0x94, 0xbd, 0x0b, 0xb8, 0x16, 0x3e, 0x5f, 0x8a, 0x48, 0x3e,
 0xb2, 0xef, 0x86, 0xbe, 0x57, 0x1b, 0x96, 0xbd, 0x2d, 0x90, 0xe9, 0xbd,
 0xbf, 0x95, 0x47, 0x3e, 0xe5, 0xd0, 0x50, 0x3e, 0x88, 0x16, 0x17, 0xbe,
 0x18, 0x47, 0x03, 0x3e, 0x8c, 0x01, 0x76, 0x3e, 0x84, 0x6d, 0x52, 0xbb,
 0xc9, 0x75, 0xaa, 0xbe, 0x4d, 0x8d, 0x19, 0x3e, 0x7e, 0x45, 0xe8, 0xbd,
 0x80, 0xa2, 0x1c, 0xbe, 0xd5, 0x04, 0x9c, 0x3e, 0x9a, 0x4e, 0xe7, 0xbd,
 0x19, 0x44, 0x71, 0x3e, 0x9b, 0xe7, 0x8a, 0xbd, 0xd4, 0xaa, 0x3e, 0xbd,
 0xfc, 0x21, 0x4c, 0x3e, 0x25, 0x0c, 0xa5, 0x3e, 0x15, 0xbb, 0xf7, 0xbd,
 0x57, 0xa7, 0x8b, 0xbe, 0x31, 0x52, 0x3d, 0xbe, 0x78, 0x02, 0x88, 0xbc,
 0x00, 0x18, 0x78, 0xbe, 0x52, 0x6f, 0xa8, 0xbe, 0x8c, 0xed, 0x28, 0xbd,
 0x9d, 0x7a, 0x25, 0x3e, 0x1e, 0xd9, 0x08, 0xbe, 0x67, 0xf3, 0x98, 0x3e,
 0x86, 0x7e, 0x92, 0xbe, 0x70, 0x32, 0x17, 0xbe, 0xd1, 0xbd, 0x2c, 0x3e,
 0x9b, 0xe1, 0x73, 0xbe, 0xff, 0xa8, 0xf9, 0xbd, 0xd1, 0x4b, 0x80, 0x3e,
 0xa3, 0x7e, 0x0f, 0xbe, 0x0a, 0x7d, 0x28, 0xbe, 0xf8, 0x98, 0xa9, 0x3e,
 0xe4, 0x7d, 0xae, 0x3e, 0x5a, 0x9b, 0x9a, 0xbe, 0x71, 0xe4, 0x74, 0x3c,
 0xae, 0x88, 0xdd, 0x3d, 0x35, 0x69, 0x47, 0xbe, 0x4e, 0x3c, 0x69, 0xbe,
 0x8c, 0xa6, 0x19, 0x3e, 0x6d, 0xe0, 0xe2, 0xbd, 0x4d, 0xd1, 0x29, 0x3e,
 0xe0, 0x09, 0xb3, 0x3e, 0x09, 0xc9, 0x25, 0x3d, 0xe8, 0x9b, 0xa0, 0x3e,
 0x14, 0xc6, 0x46, 0x3e, 0x9b, 0xbd, 0xe1, 0xbd, 0x72, 0xed, 0xff, 0xff,
 0x04, 0x00, 0x00, 0x00, 0x00, 0x01, 0x00, 0x00, 0x6c, 0xeb, 0xa6, 0xbe,
 0x72, 0xd6, 0x08, 0xbe, 0x2d, 0xf0, 0x0a, 0x3b, 0xad, 0x5d, 0xac, 0xbe,
 0x49, 0xb6, 0xd1, 0x3c, 0x98, 0xf5, 0x8e, 0xbd, 0x7d, 0xe8, 0xda, 0xbd,
 0xf7, 0xbf, 0x27, 0x3e, 0x9f, 0xec, 0xcd, 0x3d, 0x2c, 0x18, 0x59, 0x3e,
 0x54, 0x9f, 0x7d, 0xbe, 0x51, 0x91, 0x77, 0xbe, 0x04, 0x57, 0xad, 0xbd,
 0xe3, 0x99, 0x5c, 0xbe, 0x1f, 0xbc, 0x9b, 0x3e, 0x29, 0xed, 0xa9, 0x3e,
 0xbe, 0xf5, 0x8c, 0xbe, 0xe6, 0x71, 0x61, 0x3e, 0x9d, 0x35, 0x36, 0xbe,
 0xbf, 0xa3, 0x62, 0xbe, 0x3d, 0x65, 0x00, 0xbe, 0x70, 0x77, 0x67, 0x3e,
 0x11, 0x53, 0xad, 0x3e, 0x4f, 0x64, 0x6e, 0xbe, 0x70, 0x03, 0xa7, 0xbe,
 0x99, 0xfe, 0x64, 0x3d, 0x46, 0x15, 0x60, 0x3d, 0x71, 0xdd, 0xac, 0xbe,
 0x77, 0x35, 0xd0, 0xbd, 0xbc, 0xfb, 0xac, 0xbe, 0xa7, 0xe0, 0x90, 0xbe,
 0x02, 0xf3, 0x92, 0xbe, 0x35, 0xc1, 0x84, 0x3d, 0x38, 0x6f, 0x30, 0xbe,
 0xc6, 0x48, 0xff, 0xbd, 0xe1, 0x06, 0xbc, 0xbc, 0x3a, 0xd7, 0x93, 0x3d,
 0x65, 0xe8, 0xf8, 0x3c, 0x58, 0xdc, 0xb0, 0xbe, 0xef, 0x6c, 0xa5, 0x3d,
 0x0b, 0x57, 0x3b, 0xbe, 0x66, 0xd4, 0x4a, 0x3d, 0x92, 0x05, 0x04, 0xbe,
 0x18, 0x3c, 0x96, 0xbe, 0x30, 0x23, 0x7d, 0xbe, 0xfb, 0xd1, 0x80, 0xbd,
 0x1c, 0x0a, 0x9c, 0x3e, 0x26, 0x0a, 0x64, 0xbe, 0x58, 0x88, 0x8a, 0x3d,
 0xf8, 0xc0, 0x9e, 0xbe, 0xfa, 0x51, 0xa7, 0xbe, 0x55, 0x17, 0x9c, 0xbd,
 0x59, 0x3d, 0x90, 0x3e, 0x24, 0x45, 0x9a, 0x3e, 0x2f, 0xd2, 0xa5, 0x3d,
 0x34, 0x8c, 0x7f, 0x3e, 0x2c, 0x6b, 0xad, 0xbe, 0x3a, 0x25, 0x04, 0xbd,
 0xcc, 0x9e, 0xa7, 0xbe, 0x9b, 0xeb, 0x5c, 0x3e, 0x67, 0x60, 0x86, 0xbe,
 0x45, 0x42, 0x5b, 0x3e, 0xe6, 0x9b, 0xeb, 0x3d, 0x7a, 0x20, 0xf5, 0xbd,
 0x7e, 0xee, 0xff, 0xff, 0x04, 0x00, 0x00, 0x00, 0x00, 0x01, 0x00, 0x00,
 0xdd, 0x96, 0xa7, 0xbe, 0x15, 0x27, 0x9d, 0xbe, 0xdf, 0x34, 0xa3, 0x3e,
 0x58, 0x0c, 0xa8, 0xbe, 0x12, 0x7d, 0x52, 0xbc, 0x09, 0x4d, 0xda, 0x3d,
 0xf7, 0xc6, 0x85, 0xbe, 0xe0, 0x2d, 0xca, 0xbd, 0x30, 0x87, 0x03, 0xbe,
 0x8b, 0x81, 0xac, 0xbe, 0xc7, 0x94, 0x98, 0xbe, 0xc2, 0x70, 0x81, 0x3e,
 0xa8, 0x73, 0x3d, 0x3e, 0xeb, 0x90, 0xb3, 0xbe, 0x4f, 0x71, 0x32, 0xbd,
 0x87, 0xcd, 0x5a, 0x3e, 0xae, 0x0a, 0x7b, 0x3e, 0x77, 0xaf, 0x65, 0xbe,
 0x01, 0x2f, 0x21, 0x3e, 0xd9, 0x9d, 0xb1, 0xbe, 0xbe, 0x88, 0x12, 0x3e,
 0x9b, 0x20, 0x3f, 0x3e, 0xdd, 0x58, 0xee, 0xbc, 0x91, 0x24, 0x05, 0x3e,
 0xb4, 0x77, 0x65, 0x3e, 0x8b, 0x62, 0x0d, 0xbd, 0xb5, 0xec, 0x30, 0xbd,
 0x57, 0xff, 0x66, 0x3c, 0x0f, 0x7e, 0xdc, 0xbd, 0xfd, 0x33, 0xb4, 0xbe,
 0xad, 0x23, 0x78, 0xbe, 0x4d, 0x3d, 0x85, 0xbe, 0x1b, 0x59, 0x7f, 0x3d,
 0x7a, 0x56, 0x94, 0x3e, 0xeb, 0xe9, 0x37, 0x3e, 0xbe, 0x7d, 0x7f, 0xbe,
 0x4c, 0x1c, 0x83, 0xbe, 0xdf, 0x89, 0x80, 0xbe, 0xca, 0x97, 0x49, 0x3e,
 0x54, 0xe8, 0x0b, 0xbe, 0x11, 0x2d, 0x2f, 0x3e, 0x5b, 0x7a, 0x60, 0xbe,
 0x02, 0xd5, 0x97, 0xbe, 0xc3, 0x72, 0xf6, 0x3d, 0x1b, 0xff, 0xcf, 0x3d,
 0x51, 0x1d, 0x60, 0x3d, 0xbe, 0xd3, 0x89, 0xbd, 0x70, 0xf5, 0x5e, 0xbe,
 0x76, 0x0c, 0xdf, 0x3c, 0x79, 0xe7, 0xcd, 0x3d, 0xab, 0xd8, 0x8f, 0x3e,
 0x3e, 0x69, 0x99, 0xbc, 0x82, 0xe1, 0x2f, 0x3d, 0x09, 0xa1, 0xbb, 0xbd,
 0x2e, 0x84, 0x1f, 0x3e, 0x64, 0x42, 0x0d, 0x3e, 0x12, 0xa7, 0x90, 0xbe,
 0x2f, 0x37, 0x0e, 0xbe, 0xee, 0xd0, 0x8f, 0x3b, 0x65, 0x2e, 0xd8, 0xbd,
 0x81, 0xae, 0x99, 0xbe, 0xfd, 0xd7, 0xa7, 0xbe, 0x9d, 0x45, 0x55, 0xbe,
 0xd7, 0x4c, 0x86, 0x3e, 0x8a, 0xef, 0xff, 0xff, 0x04, 0x00, 0x00, 0x00,
 0x00, 0x01, 0x00, 0x00, 0x53, 0x84, 0x81, 0x3c, 0x10, 0xd8, 0xfd, 0xbd,
 0x5a, 0xe8, 0x90, 0x3e, 0x0c, 0x7c, 0x8c, 0x3e, 0xeb, 0x86, 0x5c, 0xbd,
 0xab, 0x37, 0x49, 0xbd, 0xfe, 0x14, 0x4a, 0x3e, 0x3d, 0x36, 0x65, 0x3d,
 0x6c, 0x3e, 0x5b, 0x3d, 0x7b, 0x7f, 0x39, 0xbe, 0xf9, 0x6d, 0x64, 0xbe,
 0x1f, 0x16, 0xab, 0x3e, 0x37, 0x0d, 0x52, 0x3e, 0x0a, 0x3b, 0xc2, 0x3c,
 0x7e, 0x07, 0xfc, 0x3d, 0x1d, 0xc3, 0x75, 0xbe, 0x17, 0x21, 0x48, 0xbe,
 0xb8, 0x49, 0x97, 0xbd, 0x92, 0x73, 0x6d, 0xbe, 0x2d, 0x47, 0x04, 0x3e,
 0xbe, 0x4e, 0x09, 0x3e, 0xb2, 0x04, 0x46, 0xbe, 0xda, 0x5b, 0xa4, 0xbe,
 0xb7, 0x18, 0x7f, 0xbe, 0x81, 0x59, 0x0f, 0xbe, 0x4c, 0x72, 0x50, 0xbd,
 0x6b, 0x6d, 0x87, 0xbe, 0x4c, 0x4f, 0x85, 0xbe, 0x87, 0x0a, 0xdd, 0xbd,
 0xdb, 0xaf, 0x4d, 0x3e, 0x20, 0x9e, 0x70, 0x3e, 0x22, 0x9f, 0xaa, 0xbe,
 0x78, 0x97, 0x30, 0xbe, 0x6e, 0xf6, 0x9f, 0x3e, 0x1a, 0xc8, 0xf6, 0xbc,
 0x2e, 0x25, 0x50, 0xbd, 0xef, 0xc3, 0x22, 0xbe, 0xb1, 0x34, 0x35, 0x3e,
 0x37, 0xa2, 0xa1, 0xbe, 0xda, 0x3d, 0x52, 0x3e, 0xe6, 0xa7, 0xad, 0x3e,
 0x45, 0xdb, 0x63, 0xbe, 0xb8, 0xc9, 0x08, 0xbe, 0x84, 0xa2, 0x28, 0x3e,
 0x4e, 0xa0, 0xa4, 0x3e, 0xc3, 0x92, 0x0a, 0x3e, 0x07, 0xe0, 0x98, 0x3e,
 0x87, 0xe2, 0x37, 0xbd, 0x73, 0x3c, 0xd8, 0xbd, 0xb8, 0x65, 0x16, 0xbe,
 0x7d, 0xd9, 0xad, 0x3e, 0x52, 0xcf, 0x6f, 0x3e, 0x39, 0x50, 0xb4, 0xbe,
 0x95, 0x67, 0xa6, 0x3d, 0x63, 0xb3, 0x93, 0xbe, 0x59, 0x31, 0x4b, 0x3e,
 0x11, 0x69, 0x1f, 0xbe, 0xf9, 0xb8, 0x20, 0x3e, 0x0f, 0xa1, 0x21, 0xbb,
 0xf3, 0x57, 0x8a, 0xbe, 0xa0, 0xe4, 0xfb, 0x3d, 0x9f, 0xd4, 0x50, 0x3e,
 0x0b, 0x64, 0x33, 0x3e, 0xfe, 0xb0, 0x30, 0xbe, 0x96, 0xf0, 0xff, 0xff,
 0x04, 0x00, 0x00, 0x00, 0x00, 0x01, 0x00, 0x00, 0xda, 0x2d, 0x76, 0x3e,
 0xef, 0x85, 0x9d, 0x3e, 0xa5, 0xbe, 0xae, 0x3e, 0x4b, 0x31, 0x93, 0x3e,
 0x4f, 0xe8, 0x9b, 0xbe, 0x54, 0x20, 0xb4, 0x3e, 0x70, 0xe5, 0x08, 0x3e,
 0xc0, 0xee, 0x26, 0xbe, 0xe9, 0xd1, 0xa4, 0x3e, 0xe1, 0xbb, 0x9c, 0x3e,
 0x77, 0x16, 0x67, 0x3e, 0x6a, 0xea, 0xff, 0xbc, 0x61, 0x08, 0x73, 0x3c,
 0x83, 0x56, 0x8f, 0xbe, 0x3d, 0xc5, 0x0d, 0x3e, 0x6c, 0x68, 0x7a, 0xbe,
 0xaf, 0xe9, 0x05, 0x3d, 0xf0, 0x17, 0x96, 0xbd, 0x84, 0x8c, 0x8b, 0x3e,
 0x3b, 0x63, 0xa9, 0xbe, 0xdc, 0xab, 0xe1, 0x3d, 0xcd, 0x52, 0x69, 0xbe,
 0x36, 0x9d, 0x0f, 0xbe, 0x60, 0xc7, 0x9f, 0x3e, 0xe5, 0x73, 0xa8, 0x3e,
 0x0f, 0x0f, 0x8d, 0xbe, 0x21, 0xd3, 0xed, 0x3c, 0xcc, 0xac, 0x16, 0x3e,
 0x75, 0xc7, 0xa9, 0x3e, 0x9f, 0x92, 0x66, 0x3d, 0x90, 0x61, 0xad, 0xbe,
 0x51, 0xab, 0x98, 0xbd, 0x33, 0x3a, 0x53, 0x3e, 0x08, 0x83, 0x8e, 0x3e,
 0xd3, 0x5c, 0x6f, 0x3e, 0x42, 0x66, 0x88, 0xbc, 0x09, 0x44, 0x46, 0xbe,
 0x93, 0xee, 0x04, 0xbc, 0x38, 0x16, 0x8d, 0x3c, 0xaf, 0xa7, 0x26, 0xbe,
 0xe6, 0xdc, 0x90, 0x3d, 0xe0, 0xe0, 0xd8, 0xbc, 0x46, 0x48, 0xa7, 0xbe,
 0x74, 0xcf, 0xb8, 0x3d, 0xef, 0x4b, 0x2b, 0xbe, 0xac, 0x09, 0xaf, 0x3e,
 0x92, 0x03, 0x15, 0xbd, 0xdc, 0x20, 0x83, 0xbe, 0x5d, 0x74, 0x33, 0xbe,
 0x38, 0x27, 0x57, 0xbe, 0x5f, 0x9f, 0x8e, 0xbe, 0x5c, 0xb5, 0x79, 0xbe,
 0x89, 0x42, 0x96, 0x3e, 0x6f, 0x8e, 0x03, 0xbe, 0x1d, 0xb6, 0xfa, 0xbd,
 0xed, 0x8f, 0xa7, 0xba, 0xbf, 0x4e, 0xa9, 0x3e, 0xc4, 0x97, 0x5a, 0x3d,
 0x3b, 0x65, 0x82, 0xbd, 0xb5, 0x0f, 0x2b, 0xbe, 0x87, 0x61, 0xe1, 0x3d,
 0xc3, 0xaf, 0x84, 0xbe, 0x50, 0x52, 0xaa, 0x3e, 0xd8, 0x25, 0xc7, 0xbd,
 0xa2, 0xf1, 0xff, 0xff, 0x04, 0x00, 0x00, 0x00, 0x20, 0x00, 0x00, 0x00,
 0x73, 0x03, 0x07, 0x3d, 0xe0, 0xb5, 0x4c, 0x3e, 0xdf, 0xe5, 0x41, 0x3e,
 0x8e, 0xff, 0x91, 0xbe, 0x4b, 0x41, 0x28, 0xbc, 0x12, 0xe5, 0xea, 0xbd,
 0x31, 0x7a, 0x4b, 0x3f, 0x5f, 0x1f, 0x1a, 0xbf, 0xce, 0xf1, 0xff, 0xff,
 0x04, 0x00, 0x00, 0x00, 0x20, 0x00, 0x00, 0x00, 0x49, 0x50, 0x27, 0xbc,
 0xb8, 0x6c, 0x61, 0xbe, 0xe6, 0xb8, 0x95, 0xbc, 0xb4, 0x8a, 0x94, 0x3e,
 0x02, 0x94, 0x39, 0x3e, 0x70, 0x39, 0x73, 0xbd, 0x55, 0x9c, 0x8d, 0xbe,
 0xe9, 0x96, 0x05, 0x3e, 0xfa, 0xf1, 0xff, 0xff, 0x04, 0x00, 0x00, 0x00,
 0x20, 0x00, 0x00, 0x00, 0x10, 0x3a, 0xe3, 0xbe, 0xbf, 0x0f, 0xbc, 0xbd,
 0x26, 0xad, 0xc2, 0xbe, 0xb3, 0x83, 0x8e, 0xbe, 0x77, 0xa5, 0x5c, 0xbe,
 0x7a, 0x8c, 0x25, 0x3d, 0xec, 0x0f, 0xc1, 0x3d, 0x3c, 0xbb, 0xe0, 0x3c,
 0x26, 0xf2, 0xff, 0xff, 0x04, 0x00, 0x00, 0x00, 0x20, 0x00, 0x00, 0x00,
 0xb0, 0xbf, 0xab, 0xbe, 0x1b, 0xee, 0x68, 0x3e, 0x04, 0x1f, 0x58, 0x3e,
 0x62, 0x22, 0xf8, 0x3d, 0xd4, 0xbd, 0xc3, 0xbb, 0x4a, 0x68, 0x90, 0xbe,
 0x4b, 0x98, 0x9e, 0xbe, 0x86, 0x11, 0x9e, 0x3e, 0x52, 0xf2, 0xff, 0xff,
 0x04, 0x00, 0x00, 0x00, 0x20, 0x00, 0x00, 0x00, 0xd3, 0x18, 0x3e, 0x3e,
 0x5f, 0x61, 0x13, 0xbe, 0x48, 0xc2, 0xc5, 0x3d, 0xbb, 0xd7, 0x07, 0x3e,
 0x84, 0xfc, 0x95, 0x3e, 0x03, 0x35, 0xce, 0x3d, 0xfd, 0x63, 0x4e, 0xbe,
 0x33, 0x1d, 0x57, 0xbe, 0x7e, 0xf2, 0xff, 0xff, 0x04, 0x00, 0x00, 0x00,
 0x20, 0x00, 0x00, 0x00, 0xd6, 0x95, 0xb6, 0xbd, 0x2c, 0x88, 0xb7, 0x3d,
 0xcb, 0xef, 0xa1, 0xbe, 0xc9, 0x3a, 0x79, 0x3e, 0x3b, 0x33, 0xc0, 0xbc,
 0x52, 0x4e, 0x59, 0x3e, 0x35, 0x87, 0xb2, 0xbd, 0x55, 0xf6, 0x77, 0x3e,
 0xaa, 0xf2, 0xff, 0xff, 0x04, 0x00, 0x00, 0x00, 0x20, 0x00, 0x00, 0x00,
 0xa6, 0x79, 0x7e, 0xbe, 0xcf, 0xb2, 0xa5, 0xbe, 0x71, 0x6f, 0x27, 0x3e,
 0x1b, 0xe1, 0x9c, 0x3e, 0xbd, 0xfe, 0xfc, 0x3d, 0x0e, 0x82, 0x00, 0x3d,
 0x6b, 0xc6, 0x4f, 0x3e, 0xde, 0x1d, 0x49, 0xbe, 0xd6, 0xf2, 0xff, 0xff,
 0x04, 0x00, 0x00, 0x00, 0x20, 0x00, 0x00, 0x00, 0x01, 0xf3, 0xd6, 0x3d,
 0xb8, 0xd7, 0xac, 0x3e, 0x57, 0x4b, 0x65, 0xbe, 0x6d, 0x10, 0x44, 0xbd,
 0x37, 0x81, 0x56, 0x3e, 0xf9, 0xc9, 0x62, 0x3e, 0xbe, 0xb4, 0xcc, 0x3d,
 0x40, 0x26, 0xb0, 0xbe, 0x02, 0xf3, 0xff, 0xff, 0x04, 0x00, 0x00, 0x00,
 0x20, 0x00, 0x00, 0x00, 0x60, 0x41, 0x3b, 0x3e, 0x0f, 0x75, 0x76, 0x3d,
 0x54, 0xb8, 0x32, 0x3e, 0x3f, 0x12, 0x64, 0xbd, 0xfb, 0x3f, 0xb2, 0xbe,
 0x42, 0xee, 0xa3, 0xbd, 0xc0, 0xe6, 0x61, 0xbe, 0x90, 0xdf, 0x49, 0xbe,
 0x2e, 0xf3, 0xff, 0xff, 0x04, 0x00, 0x00, 0x00, 0x20, 0x00, 0x00, 0x00,
 0x60, 0x7f, 0x23, 0xbd, 0x55, 0xe3, 0xa8, 0xbe, 0x98, 0x6c, 0x40, 0x3e,
 0xb8, 0x21, 0x42, 0x3d, 0xf4, 0xa7, 0x45, 0xbe, 0xce, 0x95, 0x87, 0xbe,
 0x1f, 0x59, 0x5a, 0xbe, 0x12, 0xd4, 0x49, 0x3d, 0x5a, 0xf3, 0xff, 0xff,
 0x04, 0x00, 0x00, 0x00, 0x20, 0x00, 0x00, 0x00, 0x8a, 0xd8, 0x97, 0x3e,
 0x8b, 0x70, 0x97, 0x3e, 0x76, 0x20, 0xb3, 0xbe, 0x5b, 0xe7, 0xc2, 0x3d,
 0xa0, 0x08, 0x97, 0x3e, 0x5c, 0x3c, 0x4c, 0xbc, 0x6e, 0x24, 0x17, 0x3e,
 0x17, 0x95, 0x92, 0x3e, 0x86, 0xf3, 0xff, 0xff, 0x04, 0x00, 0x00, 0x00,
 0x20, 0x00, 0x00, 0x00, 0x9b, 0x0c, 0xb2, 0x3e, 0x9c, 0x69, 0x55, 0xbe,
 0x6b, 0x03, 0xbf, 0x3d, 0x72, 0x85, 0xad, 0x3e, 0x3c, 0xff, 0x6b, 0xbe,
 0x0b, 0xfd, 0xb3, 0xbe, 0x2b, 0xf2, 0x97, 0xbe, 0x52, 0x73, 0x7b, 0x3e,
 0xb2, 0xf3, 0xff, 0xff, 0x04, 0x00, 0x00, 0x00, 0x20, 0x00, 0x00, 0x00,
 0xb7, 0x88, 0x8e, 0xbe, 0xc6, 0x52, 0x9d, 0xbe, 0x07, 0x60, 0x69, 0x3d,
 0x23, 0x13, 0x90, 0xbe, 0xfc, 0x86, 0x08, 0xbe, 0x1c, 0x9e, 0xad, 0x3e,
 0x0b, 0x19, 0xaa, 0xbe, 0xb9, 0xf7, 0x71, 0xbe, 0xde, 0xf3, 0xff, 0xff,
 0x04, 0x00, 0x00, 0x00, 0x20, 0x00, 0x00, 0x00, 0x1c, 0x3f, 0xa2, 0x3e,
 0xce, 0x45, 0x8e, 0x3e, 0x5d, 0x6e, 0x8c, 0xbe, 0x6e, 0x6e, 0xb4, 0x3e,
 0x05, 0xb4, 0x75, 0x3d, 0xba, 0x59, 0xb7, 0xbd, 0x1c, 0xe9, 0x12, 0x3d,
 0x1f, 0x5d, 0xad, 0xbe, 0x0a, 0xf4, 0xff, 0xff, 0x04, 0x00, 0x00, 0x00,
 0x20, 0x00, 0x00, 0x00, 0xda, 0xb8, 0x44, 0x3c, 0x14, 0x38, 0x95, 0x3e,
 0x7b, 0x23, 0xb2, 0xbd, 0x45, 0x25, 0x58, 0xbe, 0xbf, 0x4d, 0xb3, 0xbe,
 0x36, 0xa5, 0x2a, 0xbe, 0x8a, 0xdf, 0xa6, 0x3e, 0x8a, 0xf5, 0xa6, 0xbe,
 0x36, 0xf4, 0xff, 0xff, 0x04, 0x00, 0x00, 0x00, 0x20, 0x00, 0x00, 0x00,
 0xdb, 0x81, 0x0f, 0x3e, 0x61, 0xbb, 0x6a, 0x3e, 0x82, 0xce, 0xa6, 0xbd,
 0x11, 0x63, 0x92, 0x3d, 0x2d, 0xbd, 0x06, 0x3e, 0x14, 0x58, 0x6e, 0xbe,
 0x9c, 0x28, 0x71, 0x3d, 0x1d, 0xb8, 0x39, 0xbe, 0x62, 0xf4, 0xff, 0xff,
 0x04, 0x00, 0x00, 0x00, 0x20, 0x00, 0x00, 0x00, 0xda, 0x27, 0x9b, 0x3e,
 0xcf, 0xab, 0x82, 0xbd, 0x0e, 0x75, 0xd1, 0x3c, 0xbc, 0x4c, 0xc3, 0xbd,
 0x36, 0xa8, 0x9d, 0xbe, 0xa0, 0x99, 0x62, 0xbd, 0x6e, 0xea, 0xf8, 0x3c,
 0xb0, 0x2f, 0x00, 0x3e, 0x8e, 0xf4, 0xff, 0xff, 0x04, 0x00, 0x00, 0x00,
 0x20, 0x00, 0x00, 0x00, 0x29, 0x7d, 0xb9, 0x3d, 0xe1, 0x1b, 0x58, 0xbe,
 0x15, 0xad, 0x90, 0xbd, 0x25, 0x24, 0x49, 0xbe, 0xf8, 0x56, 0x8c, 0xbe,
 0x2d, 0xe3, 0xcb, 0xbd, 0x50, 0xa9, 0x49, 0x3e, 0x36, 0x95, 0xc8, 0x3d,
 0xcc, 0xb5, 0xff, 0xff, 0xd0, 0xb5, 0xff, 0xff, 0x0f, 0x00, 0x00, 0x00,
 0x4d, 0x4c, 0x49, 0x52, 0x20, 0x43, 0x6f, 0x6e, 0x76, 0x65, 0x72, 0x74,
 0x65, 0x64, 0x2e, 0x00, 0x01, 0x00, 0x00, 0x00, 0x14, 0x00, 0x00, 0x00,
 0x00, 0x00, 0x0e, 0x00, 0x18, 0x00, 0x14, 0x00, 0x10, 0x00, 0x0c, 0x00,
 0x08, 0x00, 0x04, 0x00, 0x0e, 0x00, 0x00, 0x00, 0x14, 0x00, 0x00, 0x00,
 0x1c, 0x00, 0x00, 0x00, 0xbc, 0x0c, 0x00, 0x00, 0xc0, 0x0c, 0x00, 0x00,
 0xc4, 0x0c, 0x00, 0x00, 0x04, 0x00, 0x00, 0x00, 0x6d, 0x61, 0x69, 0x6e,
 0x00, 0x00, 0x00, 0x00, 0x3b, 0x00, 0x00, 0x00, 0x60, 0x0c, 0x00, 0x00,
 0x10, 0x0c, 0x00, 0x00, 0xcc, 0x0b, 0x00, 0x00, 0x94, 0x0b, 0x00, 0x00,
 0x5c, 0x0b, 0x00, 0x00, 0x28, 0x0b, 0x00, 0x00, 0xf0, 0x0a, 0x00, 0x00,
 0xb4, 0x0a, 0x00, 0x00, 0x80, 0x0a, 0x00, 0x00, 0x4c, 0x0a, 0x00, 0x00,
 0x14, 0x0a, 0x00, 0x00, 0xdc, 0x09, 0x00, 0x00, 0xa8, 0x09, 0x00, 0x00,
 0x70, 0x09, 0x00, 0x00, 0x38, 0x09, 0x00, 0x00, 0x04, 0x09, 0x00, 0x00,
 0xcc, 0x08, 0x00, 0x00, 0x98, 0x08, 0x00, 0x00, 0x64, 0x08, 0x00, 0x00,
 0x30, 0x08, 0x00, 0x00, 0xf8, 0x07, 0x00, 0x00, 0xc0, 0x07, 0x00, 0x00,
 0x8c, 0x07, 0x00, 0x00, 0x54, 0x07, 0x00, 0x00, 0x1c, 0x07, 0x00, 0x00,
 0xe8, 0x06, 0x00, 0x00, 0xb0, 0x06, 0x00, 0x00, 0x7c, 0x06, 0x00, 0x00,
 0x48, 0x06, 0x00, 0x00, 0x14, 0x06, 0x00, 0x00, 0xdc, 0x05, 0x00, 0x00,
 0xa4, 0x05, 0x00, 0x00, 0x70, 0x05, 0x00, 0x00, 0x38, 0x05, 0x00, 0x00,
 0x00, 0x05, 0x00, 0x00, 0xcc, 0x04, 0x00, 0x00, 0x94, 0x04, 0x00, 0x00,
 0x60, 0x04, 0x00, 0x00, 0x2c, 0x04, 0x00, 0x00, 0xf8, 0x03, 0x00, 0x00,
 0xc0, 0x03, 0x00, 0x00, 0x88, 0x03, 0x00, 0x00, 0x54, 0x03, 0x00, 0x00,
 0x1c, 0x03, 0x00, 0x00, 0xe4, 0x02, 0x00, 0x00, 0xb0, 0x02, 0x00, 0x00,
 0x78, 0x02, 0x00, 0x00, 0x44, 0x02, 0x00, 0x00, 0x10, 0x02, 0x00, 0x00,
 0xdc, 0x01, 0x00, 0x00, 0xa4, 0x01, 0x00, 0x00, 0x6c, 0x01, 0x00, 0x00,
 0x38, 0x01, 0x00, 0x00, 0x00, 0x01, 0x00, 0x00, 0xc8, 0x00, 0x00, 0x00,
 0x94, 0x00, 0x00, 0x00, 0x5c, 0x00, 0x00, 0x00, 0x38, 0x00, 0x00, 0x00,
 0x04, 0x00, 0x00, 0x00, 0xda, 0xff, 0xff, 0xff, 0x0c, 0x00, 0x00, 0x00,
 0x10, 0x00, 0x00, 0x00, 0x05, 0x00, 0x00, 0x00, 0x01, 0x00, 0x00, 0x00,
 0x6c, 0x00, 0x00, 0x00, 0x02, 0x00, 0x00, 0x00, 0x6b, 0x00, 0x00, 0x00,
 0x30, 0x00, 0x00, 0x00, 0x00, 0x00, 0x0a, 0x00, 0x10, 0x00, 0x0c, 0x00,
 0x08, 0x00, 0x04, 0x00, 0x0a, 0x00, 0x00, 0x00, 0x0c, 0x00, 0x00, 0x00,
 0x10, 0x00, 0x00, 0x00, 0x04, 0x00, 0x00, 0x00, 0x01, 0x00, 0x00, 0x00,
 0x6b, 0x00, 0x00, 0x00, 0x01, 0x00, 0x00, 0x00, 0x6a, 0x00, 0x00, 0x00,
 0xea, 0xf4, 0xff, 0xff, 0x10, 0x00, 0x00, 0x00, 0x00, 0x00, 0x00, 0x08,
 0x10, 0x00, 0x00, 0x00, 0x14, 0x00, 0x00, 0x00, 0xda, 0xf4, 0xff, 0xff,
 0x00, 0x00, 0x00, 0x01, 0x01, 0x00, 0x00, 0x00, 0x6a, 0x00, 0x00, 0x00,
 0x03, 0x00, 0x00, 0x00, 0x69, 0x00, 0x00, 0x00, 0x12, 0x00, 0x00, 0x00,
 0xff, 0xff, 0xff, 0xff, 0x6a, 0xf5, 0xff, 0xff, 0x14, 0x00, 0x00, 0x00,
 0x00, 0x00, 0x00, 0x0b, 0x10, 0x00, 0x00, 0x00, 0x14, 0x00, 0x00, 0x00,
 0x01, 0x00, 0x00, 0x00, 0xb0, 0xb7, 0xff, 0xff, 0x01, 0x00, 0x00, 0x00,
 0x69, 0x00, 0x00, 0x00, 0x02, 0x00, 0x00, 0x00, 0x67, 0x00, 0x00, 0x00,
 0x68, 0x00, 0x00, 0x00, 0x4e, 0xf5, 0xff, 0xff, 0x10, 0x00, 0x00, 0x00,
 0x00, 0x00, 0x00, 0x08, 0x10, 0x00, 0x00, 0x00, 0x14, 0x00, 0x00, 0x00,
 0x3e, 0xf5, 0xff, 0xff, 0x00, 0x00, 0x00, 0x01, 0x01, 0x00, 0x00, 0x00,
 0x68, 0x00, 0x00, 0x00, 0x03, 0x00, 0x00, 0x00, 0x63, 0x00, 0x00, 0x00,
 0x13, 0x00, 0x00, 0x00, 0x01, 0x00, 0x00, 0x00, 0x82, 0xf5, 0xff, 0xff,
 0x10, 0x00, 0x00, 0x00, 0x00, 0x00, 0x00, 0x08, 0x10, 0x00, 0x00, 0x00,
 0x14, 0x00, 0x00, 0x00, 0x72, 0xf5, 0xff, 0xff, 0x00, 0x00, 0x00, 0x01,
 0x01, 0x00, 0x00, 0x00, 0x67, 0x00, 0x00, 0x00, 0x03, 0x00, 0x00, 0x00,
 0x66, 0x00, 0x00, 0x00, 0x14, 0x00, 0x00, 0x00, 0x02, 0x00, 0x00, 0x00,
 0x02, 0xf6, 0xff, 0xff, 0x14, 0x00, 0x00, 0x00, 0x00, 0x00, 0x00, 0x15,
 0x10, 0x00, 0x00, 0x00, 0x14, 0x00, 0x00, 0x00, 0x02, 0x00, 0x00, 0x00,
 0x48, 0xb8, 0xff, 0xff, 0x01, 0x00, 0x00, 0x00, 0x66, 0x00, 0x00, 0x00,
 0x02, 0x00, 0x00, 0x00, 0x65, 0x00, 0x00, 0x00, 0x2e, 0x00, 0x00, 0x00,
 0x32, 0xf6, 0xff, 0xff, 0x14, 0x00, 0x00, 0x00, 0x00, 0x00, 0x00, 0x0b,
 0x14, 0x00, 0x00, 0x00, 0x18, 0x00, 0x00, 0x00, 0x01, 0x00, 0x00, 0x00,
 0x22, 0xf6, 0xff, 0xff, 0x00, 0x00, 0x00, 0x01, 0x01, 0x00, 0x00, 0x00,
 0x65, 0x00, 0x00, 0x00, 0x02, 0x00, 0x00, 0x00, 0x64, 0x00, 0x00, 0x00,
 0x29, 0x00, 0x00, 0x00, 0x1a, 0xf6, 0xff, 0xff, 0x10, 0x00, 0x00, 0x00,
 0x00, 0x00, 0x00, 0x08, 0x10, 0x00, 0x00, 0x00, 0x14, 0x00, 0x00, 0x00,
 0x0a, 0xf6, 0xff, 0xff, 0x00, 0x00, 0x00, 0x01, 0x01, 0x00, 0x00, 0x00,
 0x64, 0x00, 0x00, 0x00, 0x03, 0x00, 0x00, 0x00, 0x63, 0x00, 0x00, 0x00,
 0x15, 0x00, 0x00, 0x00, 0xff, 0xff, 0xff, 0xff, 0x9a, 0xf6, 0xff, 0xff,
 0x14, 0x00, 0x00, 0x00, 0x00, 0x00, 0x00, 0x0b, 0x10, 0x00, 0x00, 0x00,
 0x14, 0x00, 0x00, 0x00, 0x01, 0x00, 0x00, 0x00, 0xe0, 0xb8, 0xff, 0xff,
 0x01, 0x00, 0x00, 0x00, 0x63, 0x00, 0x00, 0x00, 0x02, 0x00, 0x00, 0x00,
 0x62, 0x00, 0x00, 0x00, 0x5f, 0x00, 0x00, 0x00, 0xca, 0xf6, 0xff, 0xff,
 0x14, 0x00, 0x00, 0x00, 0x00, 0x00, 0x00, 0x15, 0x10, 0x00, 0x00, 0x00,
 0x14, 0x00, 0x00, 0x00, 0x02, 0x00, 0x00, 0x00, 0x10, 0xb9, 0xff, 0xff,
 0x01, 0x00, 0x00, 0x00, 0x62, 0x00, 0x00, 0x00, 0x02, 0x00, 0x00, 0x00,
 0x5f, 0x00, 0x00, 0x00, 0x61, 0x00, 0x00, 0x00, 0xfa, 0xf6, 0xff, 0xff,
 0x14, 0x00, 0x00, 0x00, 0x00, 0x00, 0x00, 0x09, 0x14, 0x00, 0x00, 0x00,
 0x18, 0x00, 0x00, 0x00, 0x03, 0x00, 0x00, 0x00, 0x2e, 0xf8, 0xff, 0xff,
 0x00, 0x00, 0x80, 0x3f, 0x01, 0x00, 0x00, 0x00, 0x61, 0x00, 0x00, 0x00,
 0x01, 0x00, 0x00, 0x00, 0x60, 0x00, 0x00, 0x00, 0xde, 0xf6, 0xff, 0xff,
 0x10, 0x00, 0x00, 0x00, 0x00, 0x00, 0x00, 0x08, 0x10, 0x00, 0x00, 0x00,
 0x14, 0x00, 0x00, 0x00, 0xce, 0xf6, 0xff, 0xff, 0x00, 0x00, 0x00, 0x01,
 0x01, 0x00, 0x00, 0x00, 0x60, 0x00, 0x00, 0x00, 0x03, 0x00, 0x00, 0x00,
 0x5f, 0x00, 0x00, 0x00, 0x16, 0x00, 0x00, 0x00, 0x03, 0x00, 0x00, 0x00,
 0x5e, 0xf7, 0xff, 0xff, 0x14, 0x00, 0x00, 0x00, 0x00, 0x00, 0x00, 0x0b,
 0x10, 0x00, 0x00, 0x00, 0x14, 0x00, 0x00, 0x00, 0x01, 0x00, 0x00, 0x00,
 0xa4, 0xb9, 0xff, 0xff, 0x01, 0x00, 0x00, 0x00, 0x5f, 0x00, 0x00, 0x00,
 0x02, 0x00, 0x00, 0x00, 0x5d, 0x00, 0x00, 0x00, 0x5e, 0x00, 0x00, 0x00,
 0x42, 0xf7, 0xff, 0xff, 0x10, 0x00, 0x00, 0x00, 0x00, 0x00, 0x00, 0x08,
 0x10, 0x00, 0x00, 0x00, 0x14, 0x00, 0x00, 0x00, 0x32, 0xf7, 0xff, 0xff,
 0x00, 0x00, 0x00, 0x01, 0x01, 0x00, 0x00, 0x00, 0x5e, 0x00, 0x00, 0x00,
 0x03, 0x00, 0x00, 0x00, 0x59, 0x00, 0x00, 0x00, 0x17, 0x00, 0x00, 0x00,
 0x04, 0x00, 0x00, 0x00, 0x76, 0xf7, 0xff, 0xff, 0x10, 0x00, 0x00, 0x00,
 0x00, 0x00, 0x00, 0x08, 0x10, 0x00, 0x00, 0x00, 0x14, 0x00, 0x00, 0x00,
 0x66, 0xf7, 0xff, 0xff, 0x00, 0x00, 0x00, 0x01, 0x01, 0x00, 0x00, 0x00,
 0x5d, 0x00, 0x00, 0x00, 0x03, 0x00, 0x00, 0x00, 0x5c, 0x00, 0x00, 0x00,
 0x18, 0x00, 0x00, 0x00, 0x05, 0x00, 0x00, 0x00, 0xf6, 0xf7, 0xff, 0xff,
 0x14, 0x00, 0x00, 0x00, 0x00, 0x00, 0x00, 0x15, 0x10, 0x00, 0x00, 0x00,
 0x14, 0x00, 0x00, 0x00, 0x02, 0x00, 0x00, 0x00, 0x3c, 0xba, 0xff, 0xff,
 0x01, 0x00, 0x00, 0x00, 0x5c, 0x00, 0x00, 0x00, 0x02, 0x00, 0x00, 0x00,
 0x5b, 0x00, 0x00, 0x00, 0x2e, 0x00, 0x00, 0x00, 0x26, 0xf8, 0xff, 0xff,
 0x14, 0x00, 0x00, 0x00, 0x00, 0x00, 0x00, 0x0b, 0x14, 0x00, 0x00, 0x00,
 0x18, 0x00, 0x00, 0x00, 0x01, 0x00, 0x00, 0x00, 0x16, 0xf8, 0xff, 0xff,
 0x00, 0x00, 0x00, 0x01, 0x01, 0x00, 0x00, 0x00, 0x5b, 0x00, 0x00, 0x00,
 0x02, 0x00, 0x00, 0x00, 0x5a, 0x00, 0x00, 0x00, 0x2a, 0x00, 0x00, 0x00,
 0x0e, 0xf8, 0xff, 0xff, 0x10, 0x00, 0x00, 0x00, 0x00, 0x00, 0x00, 0x08,
 0x10, 0x00, 0x00, 0x00, 0x14, 0x00, 0x00, 0x00, 0xfe, 0xf7, 0xff, 0xff,
 0x00, 0x00, 0x00, 0x01, 0x01, 0x00, 0x00, 0x00, 0x5a, 0x00, 0x00, 0x00,
 0x03, 0x00, 0x00, 0x00, 0x59, 0x00, 0x00, 0x00, 0x19, 0x00, 0x00, 0x00,
 0xff, 0xff, 0xff, 0xff, 0x8e, 0xf8, 0xff, 0xff, 0x14, 0x00, 0x00, 0x00,
 0x00, 0x00, 0x00, 0x0b, 0x10, 0x00, 0x00, 0x00, 0x14, 0x00, 0x00, 0x00,
 0x01, 0x00, 0x00, 0x00, 0xd4, 0xba, 0xff, 0xff, 0x01, 0x00, 0x00, 0x00,
 0x59, 0x00, 0x00, 0x00, 0x02, 0x00, 0x00, 0x00, 0x58, 0x00, 0x00, 0x00,
 0x55, 0x00, 0x00, 0x00, 0xbe, 0xf8, 0xff, 0xff, 0x14, 0x00, 0x00, 0x00,
 0x00, 0x00, 0x00, 0x15, 0x10, 0x00, 0x00, 0x00, 0x14, 0x00, 0x00, 0x00,
 0x02, 0x00, 0x00, 0x00, 0x04, 0xbb, 0xff, 0xff, 0x01, 0x00, 0x00, 0x00,
 0x58, 0x00, 0x00, 0x00, 0x02, 0x00, 0x00, 0x00, 0x55, 0x00, 0x00, 0x00,
 0x57, 0x00, 0x00, 0x00, 0xee, 0xf8, 0xff, 0xff, 0x14, 0x00, 0x00, 0x00,
 0x00, 0x00, 0x00, 0x09, 0x14, 0x00, 0x00, 0x00, 0x18, 0x00, 0x00, 0x00,
 0x03, 0x00, 0x00, 0x00, 0x22, 0xfa, 0xff, 0xff, 0x00, 0x00, 0x80, 0x3f,
 0x01, 0x00, 0x00, 0x00, 0x57, 0x00, 0x00, 0x00, 0x01, 0x00, 0x00, 0x00,
 0x56, 0x00, 0x00, 0x00, 0xd2, 0xf8, 0xff, 0xff, 0x10, 0x00, 0x00, 0x00,
 0x00, 0x00, 0x00, 0x08, 0x10, 0x00, 0x00, 0x00, 0x14, 0x00, 0x00, 0x00,
 0xc2, 0xf8, 0xff, 0xff, 0x00, 0x00, 0x00, 0x01, 0x01, 0x00, 0x00, 0x00,
 0x56, 0x00, 0x00, 0x00, 0x03, 0x00, 0x00, 0x00, 0x55, 0x00, 0x00, 0x00,
 0x1a, 0x00, 0x00, 0x00, 0x06, 0x00, 0x00, 0x00, 0x52, 0xf9, 0xff, 0xff,
 0x14, 0x00, 0x00, 0x00, 0x00, 0x00, 0x00, 0x0b, 0x10, 0x00, 0x00, 0x00,
 0x14, 0x00, 0x00, 0x00, 0x01, 0x00, 0x00, 0x00, 0x98, 0xbb, 0xff, 0xff,
 0x01, 0x00, 0x00, 0x00, 0x55, 0x00, 0x00, 0x00, 0x02, 0x00, 0x00, 0x00,
 0x53, 0x00, 0x00, 0x00, 0x54, 0x00, 0x00, 0x00, 0x36, 0xf9, 0xff, 0xff,
 0x10, 0x00, 0x00, 0x00, 0x00, 0x00, 0x00, 0x08, 0x10, 0x00, 0x00, 0x00,
 0x14, 0x00, 0x00, 0x00, 0x26, 0xf9, 0xff, 0xff, 0x00, 0x00, 0x00, 0x01,
 0x01, 0x00, 0x00, 0x00, 0x54, 0x00, 0x00, 0x00, 0x03, 0x00, 0x00, 0x00,
 0x4f, 0x00, 0x00, 0x00, 0x1b, 0x00, 0x00, 0x00, 0x07, 0x00, 0x00, 0x00,
 0x6a, 0xf9, 0xff, 0xff, 0x10, 0x00, 0x00, 0x00, 0x00, 0x00, 0x00, 0x08,
 0x10, 0x00, 0x00, 0x00, 0x14, 0x00, 0x00, 0x00, 0x5a, 0xf9, 0xff, 0xff,
 0x00, 0x00, 0x00, 0x01, 0x01, 0x00, 0x00, 0x00, 0x53, 0x00, 0x00, 0x00,
 0x03, 0x00, 0x00, 0x00, 0x52, 0x00, 0x00, 0x00, 0x1c, 0x00, 0x00, 0x00,
 0x08, 0x00, 0x00, 0x00, 0xea, 0xf9, 0xff, 0xff, 0x14, 0x00, 0x00, 0x00,
 0x00, 0x00, 0x00, 0x15, 0x10, 0x00, 0x00, 0x00, 0x14, 0x00, 0x00, 0x00,
 0x02, 0x00, 0x00, 0x00, 0x30, 0xbc, 0xff, 0xff, 0x01, 0x00, 0x00, 0x00,
 0x52, 0x00, 0x00, 0x00, 0x02, 0x00, 0x00, 0x00, 0x51, 0x00, 0x00, 0x00,
 0x2e, 0x00, 0x00, 0x00, 0x1a, 0xfa, 0xff, 0xff, 0x14, 0x00, 0x00, 0x00,
 0x00, 0x00, 0x00, 0x0b, 0x14, 0x00, 0x00, 0x00, 0x18, 0x00, 0x00, 0x00,
 0x01, 0x00, 0x00, 0x00, 0x0a, 0xfa, 0xff, 0xff, 0x00, 0x00, 0x00, 0x01,
 0x01, 0x00, 0x00, 0x00, 0x51, 0x00, 0x00, 0x00, 0x02, 0x00, 0x00, 0x00,
 0x50, 0x00, 0x00, 0x00, 0x2b, 0x00, 0x00, 0x00, 0x02, 0xfa, 0xff, 0xff,
 0x10, 0x00, 0x00, 0x00, 0x00, 0x00, 0x00, 0x08, 0x10, 0x00, 0x00, 0x00,
 0x14, 0x00, 0x00, 0x00, 0xf2, 0xf9, 0xff, 0xff, 0x00, 0x00, 0x00, 0x01,
 0x01, 0x00, 0x00, 0x00, 0x50, 0x00, 0x00, 0x00, 0x03, 0x00, 0x00, 0x00,
 0x4f, 0x00, 0x00, 0x00, 0x1d, 0x00, 0x00, 0x00, 0xff, 0xff, 0xff, 0xff,
 0x82, 0xfa, 0xff, 0xff, 0x14, 0x00, 0x00, 0x00, 0x00, 0x00, 0x00, 0x0b,
 0x10, 0x00, 0x00, 0x00, 0x14, 0x00, 0x00, 0x00, 0x01, 0x00, 0x00, 0x00,
 0xc8, 0xbc, 0xff, 0xff, 0x01, 0x00, 0x00, 0x00, 0x4f, 0x00, 0x00, 0x00,
 0x02, 0x00, 0x00, 0x00, 0x4e, 0x00, 0x00, 0x00, 0x4b, 0x00, 0x00, 0x00,
 0xb2, 0xfa, 0xff, 0xff, 0x14, 0x00, 0x00, 0x00, 0x00, 0x00, 0x00, 0x15,
 0x10, 0x00, 0x00, 0x00, 0x14, 0x00, 0x00, 0x00, 0x02, 0x00, 0x00, 0x00,
 0xf8, 0xbc, 0xff, 0xff, 0x01, 0x00, 0x00, 0x00, 0x4e, 0x00, 0x00, 0x00,
 0x02, 0x00, 0x00, 0x00, 0x4b, 0x00, 0x00, 0x00, 0x4d, 0x00, 0x00, 0x00,
 0xe2, 0xfa, 0xff, 0xff, 0x14, 0x00, 0x00, 0x00, 0x00, 0x00, 0x00, 0x09,
 0x14, 0x00, 0x00, 0x00, 0x18, 0x00, 0x00, 0x00, 0x03, 0x00, 0x00, 0x00,
 0x16, 0xfc, 0xff, 0xff, 0x00, 0x00, 0x80, 0x3f, 0x01, 0x00, 0x00, 0x00,
 0x4d, 0x00, 0x00, 0x00, 0x01, 0x00, 0x00, 0x00, 0x4c, 0x00, 0x00, 0x00,
 0xc6, 0xfa, 0xff, 0xff, 0x10, 0x00, 0x00, 0x00, 0x00, 0x00, 0x00, 0x08,
 0x10, 0x00, 0x00, 0x00, 0x14, 0x00, 0x00, 0x00, 0xb6, 0xfa, 0xff, 0xff,
 0x00, 0x00, 0x00, 0x01, 0x01, 0x00, 0x00, 0x00, 0x4c, 0x00, 0x00, 0x00,
 0x03, 0x00, 0x00, 0x00, 0x4b, 0x00, 0x00, 0x00, 0x1e, 0x00, 0x00, 0x00,
 0x09, 0x00, 0x00, 0x00, 0x46, 0xfb, 0xff, 0xff, 0x14, 0x00, 0x00, 0x00,
 0x00, 0x00, 0x00, 0x0b, 0x10, 0x00, 0x00, 0x00, 0x14, 0x00, 0x00, 0x00,
 0x01, 0x00, 0x00, 0x00, 0x8c, 0xbd, 0xff, 0xff, 0x01, 0x00, 0x00, 0x00,
 0x4b, 0x00, 0x00, 0x00, 0x02, 0x00, 0x00, 0x00, 0x49, 0x00, 0x00, 0x00,
 0x4a, 0x00, 0x00, 0x00, 0x2a, 0xfb, 0xff, 0xff, 0x10, 0x00, 0x00, 0x00,
 0x00, 0x00, 0x00, 0x08, 0x10, 0x00, 0x00, 0x00, 0x14, 0x00, 0x00, 0x00,
 0x1a, 0xfb, 0xff, 0xff, 0x00, 0x00, 0x00, 0x01, 0x01, 0x00, 0x00, 0x00,
 0x4a, 0x00, 0x00, 0x00, 0x03, 0x00, 0x00, 0x00, 0x45, 0x00, 0x00, 0x00,
 0x1f, 0x00, 0x00, 0x00, 0x0a, 0x00, 0x00, 0x00, 0x5e, 0xfb, 0xff, 0xff,
 0x10, 0x00, 0x00, 0x00, 0x00, 0x00, 0x00, 0x08, 0x10, 0x00, 0x00, 0x00,
 0x14, 0x00, 0x00, 0x00, 0x4e, 0xfb, 0xff, 0xff, 0x00, 0x00, 0x00, 0x01,
 0x01, 0x00, 0x00, 0x00, 0x49, 0x00, 0x00, 0x00, 0x03, 0x00, 0x00, 0x00,
 0x48, 0x00, 0x00, 0x00, 0x20, 0x00, 0x00, 0x00, 0x0b, 0x00, 0x00, 0x00,
 0xde, 0xfb, 0xff, 0xff, 0x14, 0x00, 0x00, 0x00, 0x00, 0x00, 0x00, 0x15,
 0x10, 0x00, 0x00, 0x00, 0x14, 0x00, 0x00, 0x00, 0x02, 0x00, 0x00, 0x00,
 0x24, 0xbe, 0xff, 0xff, 0x01, 0x00, 0x00, 0x00, 0x48, 0x00, 0x00, 0x00,
 0x02, 0x00, 0x00, 0x00, 0x47, 0x00, 0x00, 0x00, 0x2e, 0x00, 0x00, 0x00,
 0x0e, 0xfc, 0xff, 0xff, 0x14, 0x00, 0x00, 0x00, 0x00, 0x00, 0x00, 0x0b,
 0x14, 0x00, 0x00, 0x00, 0x18, 0x00, 0x00, 0x00, 0x01, 0x00, 0x00, 0x00,
 0xfe, 0xfb, 0xff, 0xff, 0x00, 0x00, 0x00, 0x01, 0x01, 0x00, 0x00, 0x00,
 0x47, 0x00, 0x00, 0x00, 0x02, 0x00, 0x00, 0x00, 0x46, 0x00, 0x00, 0x00,
 0x2c, 0x00, 0x00, 0x00, 0xf6, 0xfb, 0xff, 0xff, 0x10, 0x00, 0x00, 0x00,
 0x00, 0x00, 0x00, 0x08, 0x10, 0x00, 0x00, 0x00, 0x14, 0x00, 0x00, 0x00,
 0xe6, 0xfb, 0xff, 0xff, 0x00, 0x00, 0x00, 0x01, 0x01, 0x00, 0x00, 0x00,
 0x46, 0x00, 0x00, 0x00, 0x03, 0x00, 0x00, 0x00, 0x45, 0x00, 0x00, 0x00,
 0x21, 0x00, 0x00, 0x00, 0xff, 0xff, 0xff, 0xff, 0x76, 0xfc, 0xff, 0xff,
 0x14, 0x00, 0x00, 0x00, 0x00, 0x00, 0x00, 0x0b, 0x10, 0x00, 0x00, 0x00,
 0x14, 0x00, 0x00, 0x00, 0x01, 0x00, 0x00, 0x00, 0xbc, 0xbe, 0xff, 0xff,
 0x01, 0x00, 0x00, 0x00, 0x45, 0x00, 0x00, 0x00, 0x02, 0x00, 0x00, 0x00,
 0x44, 0x00, 0x00, 0x00, 0x41, 0x00, 0x00, 0x00, 0xa6, 0xfc, 0xff, 0xff,
 0x14, 0x00, 0x00, 0x00, 0x00, 0x00, 0x00, 0x15, 0x10, 0x00, 0x00, 0x00,
 0x14, 0x00, 0x00, 0x00, 0x02, 0x00, 0x00, 0x00, 0xec, 0xbe, 0xff, 0xff,
 0x01, 0x00, 0x00, 0x00, 0x44, 0x00, 0x00, 0x00, 0x02, 0x00, 0x00, 0x00,
 0x41, 0x00, 0x00, 0x00, 0x43, 0x00, 0x00, 0x00, 0xd6, 0xfc, 0xff, 0xff,
 0x14, 0x00, 0x00, 0x00, 0x00, 0x00, 0x00, 0x09, 0x14, 0x00, 0x00, 0x00,
 0x18, 0x00, 0x00, 0x00, 0x03, 0x00, 0x00, 0x00, 0x0a, 0xfe, 0xff, 0xff,
 0x00, 0x00, 0x80, 0x3f, 0x01, 0x00, 0x00, 0x00, 0x43, 0x00, 0x00, 0x00,
 0x01, 0x00, 0x00, 0x00, 0x42, 0x00, 0x00, 0x00, 0xba, 0xfc, 0xff, 0xff,
 0x10, 0x00, 0x00, 0x00, 0x00, 0x00, 0x00, 0x08, 0x10, 0x00, 0x00, 0x00,
 0x14, 0x00, 0x00, 0x00, 0xaa, 0xfc, 0xff, 0xff, 0x00, 0x00, 0x00, 0x01,
 0x01, 0x00, 0x00, 0x00, 0x42, 0x00, 0x00, 0x00, 0x03, 0x00, 0x00, 0x00,
 0x41, 0x00, 0x00, 0x00, 0x22, 0x00, 0x00, 0x00, 0x0c, 0x00, 0x00, 0x00,
 0x3a, 0xfd, 0xff, 0xff, 0x14, 0x00, 0x00, 0x00, 0x00, 0x00, 0x00, 0x0b,
 0x10, 0x00, 0x00, 0x00, 0x14, 0x00, 0x00, 0x00, 0x01, 0x00, 0x00, 0x00,
 0x80, 0xbf, 0xff, 0xff, 0x01, 0x00, 0x00, 0x00, 0x41, 0x00, 0x00, 0x00,
 0x02, 0x00, 0x00, 0x00, 0x3f, 0x00, 0x00, 0x00, 0x40, 0x00, 0x00, 0x00,
 0x1e, 0xfd, 0xff, 0xff, 0x10, 0x00, 0x00, 0x00, 0x00, 0x00, 0x00, 0x08,
 0x10, 0x00, 0x00, 0x00, 0x14, 0x00, 0x00, 0x00, 0x0e, 0xfd, 0xff, 0xff,
 0x00, 0x00, 0x00, 0x01, 0x01, 0x00, 0x00, 0x00, 0x40, 0x00, 0x00, 0x00,
 0x03, 0x00, 0x00, 0x00, 0x3b, 0x00, 0x00, 0x00, 0x23, 0x00, 0x00, 0x00,
 0x0d, 0x00, 0x00, 0x00, 0x52, 0xfd, 0xff, 0xff, 0x10, 0x00, 0x00, 0x00,
 0x00, 0x00, 0x00, 0x08, 0x10, 0x00, 0x00, 0x00, 0x14, 0x00, 0x00, 0x00,
 0x42, 0xfd, 0xff, 0xff, 0x00, 0x00, 0x00, 0x01, 0x01, 0x00, 0x00, 0x00,
 0x3f, 0x00, 0x00, 0x00, 0x03, 0x00, 0x00, 0x00, 0x3e, 0x00, 0x00, 0x00,
 0x24, 0x00, 0x00, 0x00, 0x0e, 0x00, 0x00, 0x00, 0xd2, 0xfd, 0xff, 0xff,
 0x14, 0x00, 0x00, 0x00, 0x00, 0x00, 0x00, 0x15, 0x10, 0x00, 0x00, 0x00,
 0x14, 0x00, 0x00, 0x00, 0x02, 0x00, 0x00, 0x00, 0x18, 0xc0, 0xff, 0xff,
 0x01, 0x00, 0x00, 0x00, 0x3e, 0x00, 0x00, 0x00, 0x02, 0x00, 0x00, 0x00,
 0x3d, 0x00, 0x00, 0x00, 0x2e, 0x00, 0x00, 0x00, 0x02, 0xfe, 0xff, 0xff,
 0x14, 0x00, 0x00, 0x00, 0x00, 0x00, 0x00, 0x0b, 0x14, 0x00, 0x00, 0x00,
 0x18, 0x00, 0x00, 0x00, 0x01, 0x00, 0x00, 0x00, 0xf2, 0xfd, 0xff, 0xff,
 0x00, 0x00, 0x00, 0x01, 0x01, 0x00, 0x00, 0x00, 0x3d, 0x00, 0x00, 0x00,
 0x02, 0x00, 0x00, 0x00, 0x3c, 0x00, 0x00, 0x00, 0x2d, 0x00, 0x00, 0x00,
 0xea, 0xfd, 0xff, 0xff, 0x10, 0x00, 0x00, 0x00, 0x00, 0x00, 0x00, 0x08,
 0x10, 0x00, 0x00, 0x00, 0x14, 0x00, 0x00, 0x00, 0xda, 0xfd, 0xff, 0xff,
 0x00, 0x00, 0x00, 0x01, 0x01, 0x00, 0x00, 0x00, 0x3c, 0x00, 0x00, 0x00,
 0x03, 0x00, 0x00, 0x00, 0x3b, 0x00, 0x00, 0x00, 0x25, 0x00, 0x00, 0x00,
 0xff, 0xff, 0xff, 0xff, 0x6a, 0xfe, 0xff, 0xff, 0x14, 0x00, 0x00, 0x00,
 0x00, 0x00, 0x00, 0x0b, 0x10, 0x00, 0x00, 0x00, 0x14, 0x00, 0x00, 0x00,
 0x01, 0x00, 0x00, 0x00, 0xb0, 0xc0, 0xff, 0xff, 0x01, 0x00, 0x00, 0x00,
 0x3b, 0x00, 0x00, 0x00, 0x02, 0x00, 0x00, 0x00, 0x3a, 0x00, 0x00, 0x00,
 0x37, 0x00, 0x00, 0x00, 0x9a, 0xfe, 0xff, 0xff, 0x14, 0x00, 0x00, 0x00,
 0x00, 0x00, 0x00, 0x15, 0x10, 0x00, 0x00, 0x00, 0x14, 0x00, 0x00, 0x00,
 0x02, 0x00, 0x00, 0x00, 0xe0, 0xc0, 0xff, 0xff, 0x01, 0x00, 0x00, 0x00,
 0x3a, 0x00, 0x00, 0x00, 0x02, 0x00, 0x00, 0x00, 0x37, 0x00, 0x00, 0x00,
 0x39, 0x00, 0x00, 0x00, 0xca, 0xfe, 0xff, 0xff, 0x1c, 0x00, 0x00, 0x00,
 0x00, 0x00, 0x00, 0x09, 0x1c, 0x00, 0x00, 0x00, 0x20, 0x00, 0x00, 0x00,
 0x03, 0x00, 0x00, 0x00, 0x00, 0x00, 0x06, 0x00, 0x08, 0x00, 0x04, 0x00,
 0x06, 0x00, 0x00, 0x00, 0x00, 0x00, 0x80, 0x3f, 0x01, 0x00, 0x00, 0x00,
 0x39, 0x00, 0x00, 0x00, 0x01, 0x00, 0x00, 0x00, 0x38, 0x00, 0x00, 0x00,
 0xb6, 0xfe, 0xff, 0xff, 0x10, 0x00, 0x00, 0x00, 0x00, 0x00, 0x00, 0x08,
 0x10, 0x00, 0x00, 0x00, 0x14, 0x00, 0x00, 0x00, 0xa6, 0xfe, 0xff, 0xff,
 0x00, 0x00, 0x00, 0x01, 0x01, 0x00, 0x00, 0x00, 0x38, 0x00, 0x00, 0x00,
 0x03, 0x00, 0x00, 0x00, 0x37, 0x00, 0x00, 0x00, 0x26, 0x00, 0x00, 0x00,
 0x0f, 0x00, 0x00, 0x00, 0x36, 0xff, 0xff, 0xff, 0x14, 0x00, 0x00, 0x00,
 0x00, 0x00, 0x00, 0x0b, 0x10, 0x00, 0x00, 0x00, 0x14, 0x00, 0x00, 0x00,
 0x01, 0x00, 0x00, 0x00, 0x7c, 0xc1, 0xff, 0xff, 0x01, 0x00, 0x00, 0x00,
 0x37, 0x00, 0x00, 0x00, 0x02, 0x00, 0x00, 0x00, 0x35, 0x00, 0x00, 0x00,
 0x36, 0x00, 0x00, 0x00, 0x1a, 0xff, 0xff, 0xff, 0x10, 0x00, 0x00, 0x00,
 0x00, 0x00, 0x00, 0x08, 0x10, 0x00, 0x00, 0x00, 0x14, 0x00, 0x00, 0x00,
 0x0a, 0xff, 0xff, 0xff, 0x00, 0x00, 0x00, 0x01, 0x01, 0x00, 0x00, 0x00,
 0x36, 0x00, 0x00, 0x00, 0x03, 0x00, 0x00, 0x00, 0x00, 0x00, 0x00, 0x00,
 0x27, 0x00, 0x00, 0x00, 0x10, 0x00, 0x00, 0x00, 0x4e, 0xff, 0xff, 0xff,
 0x10, 0x00, 0x00, 0x00, 0x00, 0x00, 0x00, 0x08, 0x10, 0x00, 0x00, 0x00,
 0x14, 0x00, 0x00, 0x00, 0x3e, 0xff, 0xff, 0xff, 0x00, 0x00, 0x00, 0x01,
 0x01, 0x00, 0x00, 0x00, 0x35, 0x00, 0x00, 0x00, 0x03, 0x00, 0x00, 0x00,
 0x34, 0x00, 0x00, 0x00, 0x28, 0x00, 0x00, 0x00, 0x11, 0x00, 0x00, 0x00,
 0xce, 0xff, 0xff, 0xff, 0x14, 0x00, 0x00, 0x00, 0x00, 0x00, 0x00, 0x15,
 0x10, 0x00, 0x00, 0x00, 0x14, 0x00, 0x00, 0x00, 0x02, 0x00, 0x00, 0x00,
 0x14, 0xc2, 0xff, 0xff, 0x01, 0x00, 0x00, 0x00, 0x34, 0x00, 0x00, 0x00,
 0x02, 0x00, 0x00, 0x00, 0x33, 0x00, 0x00, 0x00, 0x2e, 0x00, 0x00, 0x00,
 0x00, 0x00, 0x0e, 0x00, 0x1a, 0x00, 0x14, 0x00, 0x10, 0x00, 0x0c, 0x00,
 0x0b, 0x00, 0x04, 0x00, 0x0e, 0x00, 0x00, 0x00, 0x1c, 0x00, 0x00, 0x00,
 0x00, 0x00, 0x00, 0x0b, 0x1c, 0x00, 0x00, 0x00, 0x20, 0x00, 0x00, 0x00,
 0x01, 0x00, 0x00, 0x00, 0x00, 0x00, 0x06, 0x00, 0x08, 0x00, 0x07, 0x00,
 0x06, 0x00, 0x00, 0x00, 0x00, 0x00, 0x00, 0x01, 0x01, 0x00, 0x00, 0x00,
 0x33, 0x00, 0x00, 0x00, 0x02, 0x00, 0x00, 0x00, 0x32, 0x00, 0x00, 0x00,
 0x2f, 0x00, 0x00, 0x00, 0x00, 0x00, 0x0e, 0x00, 0x16, 0x00, 0x00, 0x00,
 0x10, 0x00, 0x0c, 0x00, 0x0b, 0x00, 0x04, 0x00, 0x0e, 0x00, 0x00, 0x00,
 0x1c, 0x00, 0x00, 0x00, 0x00, 0x00, 0x00, 0x08, 0x1c, 0x00, 0x00, 0x00,
 0x20, 0x00, 0x00, 0x00, 0x00, 0x00, 0x0a, 0x00, 0x08, 0x00, 0x00, 0x00,
 0x00, 0x00, 0x07, 0x00, 0x0a, 0x00, 0x00, 0x00, 0x00, 0x00, 0x00, 0x01,
 0x01, 0x00, 0x00, 0x00, 0x32, 0x00, 0x00, 0x00, 0x03, 0x00, 0x00, 0x00,
 0x00, 0x00, 0x00, 0x00, 0x31, 0x00, 0x00, 0x00, 0xff, 0xff, 0xff, 0xff,
 0x01, 0x00, 0x00, 0x00, 0x6c, 0x00, 0x00, 0x00, 0x01, 0x00, 0x00, 0x00,
 0x00, 0x00, 0x00, 0x00, 0x6d, 0x00, 0x00, 0x00, 0x84, 0x3c, 0x00, 0x00,
 0x30, 0x3c, 0x00, 0x00, 0xf4, 0x3b, 0x00, 0x00, 0xb8, 0x3b, 0x00, 0x00,
 0x7c, 0x3b, 0x00, 0x00, 0x40, 0x3b, 0x00, 0x00, 0x04, 0x3b, 0x00, 0x00,
 0xc8, 0x3a, 0x00, 0x00, 0x8c, 0x3a, 0x00, 0x00, 0x50, 0x3a, 0x00, 0x00,
 0x14, 0x3a, 0x00, 0x00, 0xd4, 0x39, 0x00, 0x00, 0x94, 0x39, 0x00, 0x00,
 0x54, 0x39, 0x00, 0x00, 0x14, 0x39, 0x00, 0x00, 0xd4, 0x38, 0x00, 0x00,
 0x94, 0x38, 0x00, 0x00, 0x54, 0x38, 0x00, 0x00, 0x10, 0x38, 0x00, 0x00,
 0xcc, 0x37, 0x00, 0x00, 0x88, 0x37, 0x00, 0x00, 0x44, 0x37, 0x00, 0x00,
 0x00, 0x37, 0x00, 0x00, 0xbc, 0x36, 0x00, 0x00, 0x78, 0x36, 0x00, 0x00,
 0x34, 0x36, 0x00, 0x00, 0xf0, 0x35, 0x00, 0x00, 0xac, 0x35, 0x00, 0x00,
 0x68, 0x35, 0x00, 0x00, 0x24, 0x35, 0x00, 0x00, 0xe0, 0x34, 0x00, 0x00,
 0x9c, 0x34, 0x00, 0x00, 0x58, 0x34, 0x00, 0x00, 0x14, 0x34, 0x00, 0x00,
 0xd0, 0x33, 0x00, 0x00, 0x8c, 0x33, 0x00, 0x00, 0x48, 0x33, 0x00, 0x00,
 0x04, 0x33, 0x00, 0x00, 0xc0, 0x32, 0x00, 0x00, 0x7c, 0x32, 0x00, 0x00,
 0x38, 0x32, 0x00, 0x00, 0xf4, 0x31, 0x00, 0x00, 0xb0, 0x31, 0x00, 0x00,
 0x6c, 0x31, 0x00, 0x00, 0x28, 0x31, 0x00, 0x00, 0xe4, 0x30, 0x00, 0x00,
 0xa0, 0x30, 0x00, 0x00, 0x5c, 0x30, 0x00, 0x00, 0x18, 0x30, 0x00, 0x00,
 0x20, 0x2f, 0x00, 0x00, 0x40, 0x2e, 0x00, 0x00, 0xb0, 0x2c, 0x00, 0x00,
 0xc8, 0x2b, 0x00, 0x00, 0xe8, 0x2a, 0x00, 0x00, 0x28, 0x2a, 0x00, 0x00,
 0x94, 0x29, 0x00, 0x00, 0xd8, 0x28, 0x00, 0x00, 0x44, 0x28, 0x00, 0x00,
 0xb0, 0x27, 0x00, 0x00, 0x1c, 0x27, 0x00, 0x00, 0x3c, 0x26, 0x00, 0x00,
 0xac, 0x24, 0x00, 0x00, 0xc4, 0x23, 0x00, 0x00, 0xe4, 0x22, 0x00, 0x00,
 0x24, 0x22, 0x00, 0x00, 0x90, 0x21, 0x00, 0x00, 0xd4, 0x20, 0x00, 0x00,
 0x40, 0x20, 0x00, 0x00, 0xac, 0x1f, 0x00, 0x00, 0x18, 0x1f, 0x00, 0x00,
 0x38, 0x1e, 0x00, 0x00, 0xa8, 0x1c, 0x00, 0x00, 0xc0, 0x1b, 0x00, 0x00,
 0xe0, 0x1a, 0x00, 0x00, 0x20, 0x1a, 0x00, 0x00, 0x8c, 0x19, 0x00, 0x00,
 0xd0, 0x18, 0x00, 0x00, 0x3c, 0x18, 0x00, 0x00, 0xa8, 0x17, 0x00, 0x00,
 0x14, 0x17, 0x00, 0x00, 0x34, 0x16, 0x00, 0x00, 0xa4, 0x14, 0x00, 0x00,
 0xbc, 0x13, 0x00, 0x00, 0xdc, 0x12, 0x00, 0x00, 0x1c, 0x12, 0x00, 0x00,
 0x88, 0x11, 0x00, 0x00, 0xcc, 0x10, 0x00, 0x00, 0x38, 0x10, 0x00, 0x00,
 0xa4, 0x0f, 0x00, 0x00, 0x10, 0x0f, 0x00, 0x00, 0x30, 0x0e, 0x00, 0x00,
 0xa0, 0x0c, 0x00, 0x00, 0xb8, 0x0b, 0x00, 0x00, 0xd8, 0x0a, 0x00, 0x00,
 0x18, 0x0a, 0x00, 0x00, 0x84, 0x09, 0x00, 0x00, 0xc8, 0x08, 0x00, 0x00,
 0x34, 0x08, 0x00, 0x00, 0xa0, 0x07, 0x00, 0x00, 0x0c, 0x07, 0x00, 0x00,
 0x2c, 0x06, 0x00, 0x00, 0x98, 0x04, 0x00, 0x00, 0xb0, 0x03, 0x00, 0x00,
 0xd0, 0x02, 0x00, 0x00, 0x10, 0x02, 0x00, 0x00, 0x7c, 0x01, 0x00, 0x00,
 0xe4, 0x00, 0x00, 0x00, 0x48, 0x00, 0x00, 0x00, 0x04, 0x00, 0x00, 0x00,
 0x46, 0xc5, 0xff, 0xff, 0x00, 0x00, 0x00, 0x01, 0x10, 0x00, 0x00, 0x00,
 0x10, 0x00, 0x00, 0x00, 0x6d, 0x00, 0x00, 0x00, 0x28, 0x00, 0x00, 0x00,
 0xa8, 0xc4, 0xff, 0xff, 0x19, 0x00, 0x00, 0x00, 0x53, 0x74, 0x61, 0x74,
 0x65, 0x66, 0x75, 0x6c, 0x50, 0x61, 0x72, 0x74, 0x69, 0x74, 0x69, 0x6f,
 0x6e, 0x65, 0x64, 0x43, 0x61, 0x6c, 0x6c, 0x3a, 0x30, 0x00, 0x00, 0x00,
 0x00, 0x00, 0x00, 0x00, 0x86, 0xc5, 0xff, 0xff, 0x00, 0x00, 0x00, 0x01,
 0x10, 0x00, 0x00, 0x00, 0x10, 0x00, 0x00, 0x00, 0x6c, 0x00, 0x00, 0x00,
 0x78, 0x00, 0x00, 0x00, 0xe8, 0xc4, 0xff, 0xff, 0x69, 0x00, 0x00, 0x00,
 0x5f, 0x5f, 0x6d, 0x61, 0x69, 0x6e, 0x5f, 0x5f, 0x2e, 0x53, 0x6f, 0x43,
 0x45, 0x73, 0x74, 0x69, 0x6d, 0x61, 0x74, 0x6f, 0x72, 0x2f, 0x74, 0x6f,
 0x72, 0x63, 0x68, 0x2e, 0x6e, 0x6e, 0x2e, 0x6d, 0x6f, 0x64, 0x75, 0x6c,
 0x65, 0x73, 0x2e, 0x63, 0x6f, 0x6e, 0x74, 0x61, 0x69, 0x6e, 0x65, 0x72,
 0x2e, 0x53, 0x65, 0x71, 0x75, 0x65, 0x6e, 0x74, 0x69, 0x61, 0x6c, 0x5f,
 0x6d, 0x6f, 0x64, 0x65, 0x6c, 0x2f, 0x74, 0x6f, 0x72, 0x63, 0x68, 0x2e,
 0x6e, 0x6e, 0x2e, 0x6d, 0x6f, 0x64, 0x75, 0x6c, 0x65, 0x73, 0x2e, 0x61,
 0x63, 0x74, 0x69, 0x76, 0x61, 0x74, 0x69, 0x6f, 0x6e, 0x2e, 0x53, 0x69,
 0x67, 0x6d, 0x6f, 0x69, 0x64, 0x5f, 0x31, 0x32, 0x3b, 0x00, 0x00, 0x00,
 0x02, 0x00, 0x00, 0x00, 0x01, 0x00, 0x00, 0x00, 0x01, 0x00, 0x00, 0x00,
 0x1e, 0xc6, 0xff, 0xff, 0x00, 0x00, 0x00, 0x01, 0x10, 0x00, 0x00, 0x00,
 0x10, 0x00, 0x00, 0x00, 0x6b, 0x00, 0x00, 0x00, 0x74, 0x00, 0x00, 0x00,
 0x80, 0xc5, 0xff, 0xff, 0x64, 0x00, 0x00, 0x00, 0x5f, 0x5f, 0x6d, 0x61,
 0x69, 0x6e, 0x5f, 0x5f, 0x2e, 0x53, 0x6f, 0x43, 0x45, 0x73, 0x74, 0x69,
 0x6d, 0x61, 0x74, 0x6f, 0x72, 0x2f, 0x74, 0x6f, 0x72, 0x63, 0x68, 0x2e,
 0x6e, 0x6e, 0x2e, 0x6d, 0x6f, 0x64, 0x75, 0x6c, 0x65, 0x73, 0x2e, 0x63,
 0x6f, 0x6e, 0x74, 0x61, 0x69, 0x6e, 0x65, 0x72, 0x2e, 0x53, 0x65, 0x71,
 0x75, 0x65, 0x6e, 0x74, 0x69, 0x61, 0x6c, 0x5f, 0x6d, 0x6f, 0x64, 0x65,
 0x6c, 0x2f, 0x74, 0x6f, 0x72, 0x63, 0x68, 0x2e, 0x6e, 0x6e, 0x2e, 0x6d,
 0x6f, 0x64, 0x75, 0x6c, 0x65, 0x73, 0x2e, 0x6c, 0x69, 0x6e, 0x65, 0x61,
 0x72, 0x2e, 0x4c, 0x69, 0x6e, 0x65, 0x61, 0x72, 0x5f, 0x31, 0x31, 0x3b,
 0x00, 0x00, 0x00, 0x00, 0x02, 0x00, 0x00, 0x00, 0x01, 0x00, 0x00, 0x00,
 0x01, 0x00, 0x00, 0x00, 0xb2, 0xc6, 0xff, 0xff, 0x00, 0x00, 0x00, 0x01,
 0x10, 0x00, 0x00, 0x00, 0x10, 0x00, 0x00, 0x00, 0x6a, 0x00, 0x00, 0x00,
 0x70, 0x00, 0x00, 0x00, 0x14, 0xc6, 0xff, 0xff, 0x62, 0x00, 0x00, 0x00,
 0x5f, 0x5f, 0x6d, 0x61, 0x69, 0x6e, 0x5f, 0x5f, 0x2e, 0x53, 0x6f, 0x43,
 0x45, 0x73, 0x74, 0x69, 0x6d, 0x61, 0x74, 0x6f, 0x72, 0x2f, 0x74, 0x6f,
 0x72, 0x63, 0x68, 0x2e, 0x6e, 0x6e, 0x2e, 0x6d, 0x6f, 0x64, 0x75, 0x6c,
 0x65, 0x73, 0x2e, 0x63, 0x6f, 0x6e, 0x74, 0x61, 0x69, 0x6e, 0x65, 0x72,
 0x2e, 0x53, 0x65, 0x71, 0x75, 0x65, 0x6e, 0x74, 0x69, 0x61, 0x6c, 0x5f,
 0x6d, 0x6f, 0x64, 0x65, 0x6c, 0x2f, 0x5f, 0x5f, 0x6d, 0x61, 0x69, 0x6e,
 0x5f, 0x5f, 0x2e, 0x4c, 0x69, 0x6e, 0x65, 0x61, 0x72, 0x52, 0x65, 0x73,
 0x69, 0x64, 0x75, 0x61, 0x6c, 0x42, 0x6c, 0x6f, 0x63, 0x6b, 0x5f, 0x31,
 0x30, 0x3b, 0x00, 0x00, 0x02, 0x00, 0x00, 0x00, 0x01, 0x00, 0x00, 0x00,
 0x08, 0x00, 0x00, 0x00, 0x42, 0xc7, 0xff, 0xff, 0x00, 0x00, 0x00, 0x01,
 0x10, 0x00, 0x00, 0x00, 0x10, 0x00, 0x00, 0x00, 0x69, 0x00, 0x00, 0x00,
 0x9c, 0x00, 0x00, 0x00, 0xa4, 0xc6, 0xff, 0xff, 0x8f, 0x00, 0x00, 0x00,
 0x5f, 0x5f, 0x6d, 0x61, 0x69, 0x6e, 0x5f, 0x5f, 0x2e, 0x53, 0x6f, 0x43,
 0x45, 0x73, 0x74, 0x69, 0x6d, 0x61, 0x74, 0x6f, 0x72, 0x2f, 0x74, 0x6f,
 0x72, 0x63, 0x68, 0x2e, 0x6e, 0x6e, 0x2e, 0x6d, 0x6f, 0x64, 0x75, 0x6c,
 0x65, 0x73, 0x2e, 0x63, 0x6f, 0x6e, 0x74, 0x61, 0x69, 0x6e, 0x65, 0x72,
 0x2e, 0x53, 0x65, 0x71, 0x75, 0x65, 0x6e, 0x74, 0x69, 0x61, 0x6c, 0x5f,
 0x6d, 0x6f, 0x64, 0x65, 0x6c, 0x2f, 0x5f, 0x5f, 0x6d, 0x61, 0x69, 0x6e,
 0x5f, 0x5f, 0x2e, 0x4c, 0x69, 0x6e, 0x65, 0x61, 0x72, 0x52, 0x65, 0x73,
 0x69, 0x64, 0x75, 0x61, 0x6c, 0x42, 0x6c, 0x6f, 0x63, 0x6b, 0x5f, 0x31,
 0x30, 0x2f, 0x74, 0x6f, 0x72, 0x63, 0x68, 0x2e, 0x6e, 0x6e, 0x2e, 0x6d,
 0x6f, 0x64, 0x75, 0x6c, 0x65, 0x73, 0x2e, 0x6c, 0x69, 0x6e, 0x65, 0x61,
 0x72, 0x2e, 0x4c, 0x69, 0x6e, 0x65, 0x61, 0x72, 0x5f, 0x69, 0x6e, 0x70,
 0x75, 0x74, 0x5f, 0x6d, 0x61, 0x70, 0x70, 0x69, 0x6e, 0x67, 0x3b, 0x00,
 0x02, 0x00, 0x00, 0x00, 0x01, 0x00, 0x00, 0x00, 0x08, 0x00, 0x00, 0x00,
 0xfe, 0xc7, 0xff, 0xff, 0x00, 0x00, 0x00, 0x01, 0x10, 0x00, 0x00, 0x00,
 0x10, 0x00, 0x00, 0x00, 0x68, 0x00, 0x00, 0x00, 0xbc, 0x00, 0x00, 0x00,
 0x60, 0xc7, 0xff, 0xff, 0xaf, 0x00, 0x00, 0x00, 0x5f, 0x5f, 0x6d, 0x61,
 0x69, 0x6e, 0x5f, 0x5f, 0x2e, 0x53, 0x6f, 0x43, 0x45, 0x73, 0x74, 0x69,
 0x6d, 0x61, 0x74, 0x6f, 0x72, 0x2f, 0x74, 0x6f, 0x72, 0x63, 0x68, 0x2e,
 0x6e, 0x6e, 0x2e, 0x6d, 0x6f, 0x64, 0x75, 0x6c, 0x65, 0x73, 0x2e, 0x63,
 0x6f, 0x6e, 0x74, 0x61, 0x69, 0x6e, 0x65, 0x72, 0x2e, 0x53, 0x65, 0x71,
 0x75, 0x65, 0x6e, 0x74, 0x69, 0x61, 0x6c, 0x5f, 0x6d, 0x6f, 0x64, 0x65,
 0x6c, 0x2f, 0x5f, 0x5f, 0x6d, 0x61, 0x69, 0x6e, 0x5f, 0x5f, 0x2e, 0x4c,
 0x69, 0x6e, 0x65, 0x61, 0x72, 0x52, 0x65, 0x73, 0x69, 0x64, 0x75, 0x61,
 0x6c, 0x42, 0x6c, 0x6f, 0x63, 0x6b, 0x5f, 0x31, 0x30, 0x2f, 0x74, 0x6f,
 0x72, 0x63, 0x68, 0x2e, 0x6e, 0x6e, 0x2e, 0x6d, 0x6f, 0x64, 0x75, 0x6c,
 0x65, 0x73, 0x2e, 0x63, 0x6f, 0x6e, 0x74, 0x61, 0x69, 0x6e, 0x65, 0x72,
 0x2e, 0x53, 0x65, 0x71, 0x75, 0x65, 0x6e, 0x74, 0x69, 0x61, 0x6c, 0x5f,
 0x6d, 0x6f, 0x64, 0x65, 0x6c, 0x2f, 0x74, 0x6f, 0x72, 0x63, 0x68, 0x2e,
 0x6e, 0x6e, 0x2e, 0x6d, 0x6f, 0x64, 0x75, 0x6c, 0x65, 0x73, 0x2e, 0x6c,
 0x69, 0x6e, 0x65, 0x61, 0x72, 0x2e, 0x4c, 0x69, 0x6e, 0x65, 0x61, 0x72,
 0x5f, 0x33, 0x3b, 0x00, 0x02, 0x00, 0x00, 0x00, 0x01, 0x00, 0x00, 0x00,
 0x08, 0x00, 0x00, 0x00, 0xda, 0xc8, 0xff, 0xff, 0x00, 0x00, 0x00, 0x01,
 0x10, 0x00, 0x00, 0x00, 0x10, 0x00, 0x00, 0x00, 0x67, 0x00, 0x00, 0x00,
 0xc4, 0x00, 0x00, 0x00, 0x3c, 0xc8, 0xff, 0xff, 0xb7, 0x00, 0x00, 0x00,
 0x5f, 0x5f, 0x6d, 0x61, 0x69, 0x6e, 0x5f, 0x5f, 0x2e, 0x53, 0x6f, 0x43,
 0x45, 0x73, 0x74, 0x69, 0x6d, 0x61, 0x74, 0x6f, 0x72, 0x2f, 0x74, 0x6f,
 0x72, 0x63, 0x68, 0x2e, 0x6e, 0x6e, 0x2e, 0x6d, 0x6f, 0x64, 0x75, 0x6c,
 0x65, 0x73, 0x2e, 0x63, 0x6f, 0x6e, 0x74, 0x61, 0x69, 0x6e, 0x65, 0x72,
 0x2e, 0x53, 0x65, 0x71, 0x75, 0x65, 0x6e, 0x74, 0x69, 0x61, 0x6c, 0x5f,
 0x6d, 0x6f, 0x64, 0x65, 0x6c, 0x2f, 0x5f, 0x5f, 0x6d, 0x61, 0x69, 0x6e,
 0x5f, 0x5f, 0x2e, 0x4c, 0x69, 0x6e, 0x65, 0x61, 0x72, 0x52, 0x65, 0x73,
 0x69, 0x64, 0x75, 0x61, 0x6c, 0x42, 0x6c, 0x6f, 0x63, 0x6b, 0x5f, 0x31,
 0x30, 0x2f, 0x74, 0x6f, 0x72, 0x63, 0x68, 0x2e, 0x6e, 0x6e, 0x2e, 0x6d,
 0x6f, 0x64, 0x75, 0x6c, 0x65, 0x73, 0x2e, 0x63, 0x6f, 0x6e, 0x74, 0x61,
 0x69, 0x6e, 0x65, 0x72, 0x2e, 0x53, 0x65, 0x71, 0x75, 0x65, 0x6e, 0x74,
 0x69, 0x61, 0x6c, 0x5f, 0x6d, 0x6f, 0x64, 0x65, 0x6c, 0x2f, 0x74, 0x6f,
 0x72, 0x63, 0x68, 0x2e, 0x6e, 0x6e, 0x2e, 0x6d, 0x6f, 0x64, 0x75, 0x6c,
 0x65, 0x73, 0x2e, 0x62, 0x61, 0x74, 0x63, 0x68, 0x6e, 0x6f, 0x72, 0x6d,
 0x2e, 0x42, 0x61, 0x74, 0x63, 0x68, 0x4e, 0x6f, 0x72, 0x6d, 0x31, 0x64,
 0x5f, 0x32, 0x3b, 0x00, 0x02, 0x00, 0x00, 0x00, 0x01, 0x00, 0x00, 0x00,
 0x08, 0x00, 0x00, 0x00, 0xbe, 0xc9, 0xff, 0xff, 0x00, 0x00, 0x00, 0x01,
 0x10, 0x00, 0x00, 0x00, 0x10, 0x00, 0x00, 0x00, 0x66, 0x00, 0x00, 0x00,
 0x70, 0x01, 0x00, 0x00, 0x20, 0xc9, 0xff, 0xff, 0x61, 0x01, 0x00, 0x00,
 0x5f, 0x5f, 0x6d, 0x61, 0x69, 0x6e, 0x5f, 0x5f, 0x2e, 0x53, 0x6f, 0x43,
 0x45, 0x73, 0x74, 0x69, 0x6d, 0x61, 0x74, 0x6f, 0x72, 0x2f, 0x74, 0x6f,
 0x72, 0x63, 0x68, 0x2e, 0x6e, 0x6e, 0x2e, 0x6d, 0x6f, 0x64, 0x75, 0x6c,
 0x65, 0x73, 0x2e, 0x63, 0x6f, 0x6e, 0x74, 0x61, 0x69, 0x6e, 0x65, 0x72,
 0x2e, 0x53, 0x65, 0x71, 0x75, 0x65, 0x6e, 0x74, 0x69, 0x61, 0x6c, 0x5f,
 0x6d, 0x6f, 0x64, 0x65, 0x6c, 0x2f, 0x5f, 0x5f, 0x6d, 0x61, 0x69, 0x6e,
 0x5f, 0x5f, 0x2e, 0x4c, 0x69, 0x6e, 0x65, 0x61, 0x72, 0x52, 0x65, 0x73,
 0x69, 0x64, 0x75, 0x61, 0x6c, 0x42, 0x6c, 0x6f, 0x63, 0x6b, 0x5f, 0x31,
 0x30, 0x2f, 0x74, 0x6f, 0x72, 0x63, 0x68, 0x2e, 0x6e, 0x6e, 0x2e, 0x6d,
 0x6f, 0x64, 0x75, 0x6c, 0x65, 0x73, 0x2e, 0x63, 0x6f, 0x6e, 0x74, 0x61,
 0x69, 0x6e, 0x65, 0x72, 0x2e, 0x53, 0x65, 0x71, 0x75, 0x65, 0x6e, 0x74,
 0x69, 0x61, 0x6c, 0x5f, 0x6d, 0x6f, 0x64, 0x65, 0x6c, 0x2f, 0x74, 0x6f,
 0x72, 0x63, 0x68, 0x2e, 0x6e, 0x6e, 0x2e, 0x6d, 0x6f, 0x64, 0x75, 0x6c,
 0x65, 0x73, 0x2e, 0x61, 0x63, 0x74, 0x69, 0x76, 0x61, 0x74, 0x69, 0x6f,
 0x6e, 0x2e, 0x52, 0x65, 0x4c, 0x55, 0x5f, 0x31, 0x3b, 0x3b, 0x5f, 0x5f,
 0x6d, 0x61, 0x69, 0x6e, 0x5f, 0x5f, 0x2e, 0x53, 0x6f, 0x43, 0x45, 0x73,
 0x74, 0x69, 0x6d, 0x61, 0x74, 0x6f, 0x72, 0x2f, 0x74, 0x6f, 0x72, 0x63,
 0x68, 0x2e, 0x6e, 0x6e, 0x2e, 0x6d, 0x6f, 0x64, 0x75, 0x6c, 0x65, 0x73,
 0x2e, 0x63, 0x6f, 0x6e, 0x74, 0x61, 0x69, 0x6e, 0x65, 0x72, 0x2e, 0x53,
 0x65, 0x71, 0x75, 0x65, 0x6e, 0x74, 0x69, 0x61, 0x6c, 0x5f, 0x6d, 0x6f,
 0x64, 0x65, 0x6c, 0x2f, 0x5f, 0x5f, 0x6d, 0x61, 0x69, 0x6e, 0x5f, 0x5f,
 0x2e, 0x4c, 0x69, 0x6e, 0x65, 0x61, 0x72, 0x52, 0x65, 0x73, 0x69, 0x64,
 0x75, 0x61, 0x6c, 0x42, 0x6c, 0x6f, 0x63, 0x6b, 0x5f, 0x31, 0x30, 0x2f,
 0x74, 0x6f, 0x72, 0x63, 0x68, 0x2e, 0x6e, 0x6e, 0x2e, 0x6d, 0x6f, 0x64,
 0x75, 0x6c, 0x65, 0x73, 0x2e, 0x63, 0x6f, 0x6e, 0x74, 0x61, 0x69, 0x6e,
 0x65, 0x72, 0x2e, 0x53, 0x65, 0x71, 0x75, 0x65, 0x6e, 0x74, 0x69, 0x61,
 0x6c, 0x5f, 0x6d, 0x6f, 0x64, 0x65, 0x6c, 0x2f, 0x74, 0x6f, 0x72, 0x63,
 0x68, 0x2e, 0x6e, 0x6e, 0x2e, 0x6d, 0x6f, 0x64, 0x75, 0x6c, 0x65, 0x73,
 0x2e, 0x6c, 0x69, 0x6e, 0x65, 0x61, 0x72, 0x2e, 0x4c, 0x69, 0x6e, 0x65,
 0x61, 0x72, 0x5f, 0x30, 0x3b, 0x00, 0x00, 0x00, 0x02, 0x00, 0x00, 0x00,
 0x01, 0x00, 0x00, 0x00, 0x08, 0x00, 0x00, 0x00, 0x4e, 0xcb, 0xff, 0xff,
 0x00, 0x00, 0x00, 0x01, 0x10, 0x00, 0x00, 0x00, 0x10, 0x00, 0x00, 0x00,
 0x65, 0x00, 0x00, 0x00, 0xbc, 0x00, 0x00, 0x00, 0xb0, 0xca, 0xff, 0xff,
 0xaf, 0x00, 0x00, 0x00, 0x5f, 0x5f, 0x6d, 0x61, 0x69, 0x6e, 0x5f, 0x5f,
 0x2e, 0x53, 0x6f, 0x43, 0x45, 0x73, 0x74, 0x69, 0x6d, 0x61, 0x74, 0x6f,
 0x72, 0x2f, 0x74, 0x6f, 0x72, 0x63, 0x68, 0x2e, 0x6e, 0x6e, 0x2e, 0x6d,
 0x6f, 0x64, 0x75, 0x6c, 0x65, 0x73, 0x2e, 0x63, 0x6f, 0x6e, 0x74, 0x61,
 0x69, 0x6e, 0x65, 0x72, 0x2e, 0x53, 0x65, 0x71, 0x75, 0x65, 0x6e, 0x74,
 0x69, 0x61, 0x6c, 0x5f, 0x6d, 0x6f, 0x64, 0x65, 0x6c, 0x2f, 0x5f, 0x5f,
 0x6d, 0x61, 0x69, 0x6e, 0x5f, 0x5f, 0x2e, 0x4c, 0x69, 0x6e, 0x65, 0x61,
 0x72, 0x52, 0x65, 0x73, 0x69, 0x64, 0x75, 0x61, 0x6c, 0x42, 0x6c, 0x6f,
 0x63, 0x6b, 0x5f, 0x31, 0x30, 0x2f, 0x74, 0x6f, 0x72, 0x63, 0x68, 0x2e,
 0x6e, 0x6e, 0x2e, 0x6d, 0x6f, 0x64, 0x75, 0x6c, 0x65, 0x73, 0x2e, 0x63,
 0x6f, 0x6e, 0x74, 0x61, 0x69, 0x6e, 0x65, 0x72, 0x2e, 0x53, 0x65, 0x71,
 0x75, 0x65, 0x6e, 0x74, 0x69, 0x61, 0x6c, 0x5f, 0x6d, 0x6f, 0x64, 0x65,
 0x6c, 0x2f, 0x74, 0x6f, 0x72, 0x63, 0x68, 0x2e, 0x6e, 0x6e, 0x2e, 0x6d,
 0x6f, 0x64, 0x75, 0x6c, 0x65, 0x73, 0x2e, 0x6c, 0x69, 0x6e, 0x65, 0x61,
 0x72, 0x2e, 0x4c, 0x69, 0x6e, 0x65, 0x61, 0x72, 0x5f, 0x30, 0x3b, 0x00,
 0x02, 0x00, 0x00, 0x00, 0x01, 0x00, 0x00, 0x00, 0x08, 0x00, 0x00, 0x00,
 0x2a, 0xcc, 0xff, 0xff, 0x00, 0x00, 0x00, 0x01, 0x10, 0x00, 0x00, 0x00,
 0x10, 0x00, 0x00, 0x00, 0x64, 0x00, 0x00, 0x00, 0x70, 0x00, 0x00, 0x00,
 0x8c, 0xcb, 0xff, 0xff, 0x63, 0x00, 0x00, 0x00, 0x5f, 0x5f, 0x6d, 0x61,
 0x69, 0x6e, 0x5f, 0x5f, 0x2e, 0x53, 0x6f, 0x43, 0x45, 0x73, 0x74, 0x69,
 0x6d, 0x61, 0x74, 0x6f, 0x72, 0x2f, 0x74, 0x6f, 0x72, 0x63, 0x68, 0x2e,
 0x6e, 0x6e, 0x2e, 0x6d, 0x6f, 0x64, 0x75, 0x6c, 0x65, 0x73, 0x2e, 0x63,
 0x6f, 0x6e, 0x74, 0x61, 0x69, 0x6e, 0x65, 0x72, 0x2e, 0x53, 0x65, 0x71,
 0x75, 0x65, 0x6e, 0x74, 0x69, 0x61, 0x6c, 0x5f, 0x6d, 0x6f, 0x64, 0x65,
 0x6c, 0x2f, 0x5f, 0x5f, 0x6d, 0x61, 0x69, 0x6e, 0x5f, 0x5f, 0x2e, 0x46,
 0x65, 0x61, 0x74, 0x75, 0x72, 0x65, 0x57, 0x69, 0x73, 0x65, 0x41, 0x74,
 0x74, 0x65, 0x6e, 0x74, 0x69, 0x6f, 0x6e, 0x5f, 0x39, 0x3b, 0x32, 0x00,
 0x02, 0x00, 0x00, 0x00, 0x01, 0x00, 0x00, 0x00, 0x08, 0x00, 0x00, 0x00,
 0xba, 0xcc, 0xff, 0xff, 0x00, 0x00, 0x00, 0x01, 0x10, 0x00, 0x00, 0x00,
 0x10, 0x00, 0x00, 0x00, 0x63, 0x00, 0x00, 0x00, 0x70, 0x00, 0x00, 0x00,
 0x1c, 0xcc, 0xff, 0xff, 0x63, 0x00, 0x00, 0x00, 0x5f, 0x5f, 0x6d, 0x61,
 0x69, 0x6e, 0x5f, 0x5f, 0x2e, 0x53, 0x6f, 0x43, 0x45, 0x73, 0x74, 0x69,
 0x6d, 0x61, 0x74, 0x6f, 0x72, 0x2f, 0x74, 0x6f, 0x72, 0x63, 0x68, 0x2e,
 0x6e, 0x6e, 0x2e, 0x6d, 0x6f, 0x64, 0x75, 0x6c, 0x65, 0x73, 0x2e, 0x63,
 0x6f, 0x6e, 0x74, 0x61, 0x69, 0x6e, 0x65, 0x72, 0x2e, 0x53, 0x65, 0x71,
 0x75, 0x65, 0x6e, 0x74, 0x69, 0x61, 0x6c, 0x5f, 0x6d, 0x6f, 0x64, 0x65,
 0x6c, 0x2f, 0x5f, 0x5f, 0x6d, 0x61, 0x69, 0x6e, 0x5f, 0x5f, 0x2e, 0x46,
 0x65, 0x61, 0x74, 0x75, 0x72, 0x65, 0x57, 0x69, 0x73, 0x65, 0x41, 0x74,
 0x74, 0x65, 0x6e, 0x74, 0x69, 0x6f, 0x6e, 0x5f, 0x39, 0x3b, 0x31, 0x00,
 0x02, 0x00, 0x00, 0x00, 0x01, 0x00, 0x00, 0x00, 0x08, 0x00, 0x00, 0x00,
 0x4a, 0xcd, 0xff, 0xff, 0x00, 0x00, 0x00, 0x01, 0x10, 0x00, 0x00, 0x00,
 0x10, 0x00, 0x00, 0x00, 0x62, 0x00, 0x00, 0x00, 0x70, 0x00, 0x00, 0x00,
 0xac, 0xcc, 0xff, 0xff, 0x62, 0x00, 0x00, 0x00, 0x5f, 0x5f, 0x6d, 0x61,
 0x69, 0x6e, 0x5f, 0x5f, 0x2e, 0x53, 0x6f, 0x43, 0x45, 0x73, 0x74, 0x69,
 0x6d, 0x61, 0x74, 0x6f, 0x72, 0x2f, 0x74, 0x6f, 0x72, 0x63, 0x68, 0x2e,
 0x6e, 0x6e, 0x2e, 0x6d, 0x6f, 0x64, 0x75, 0x6c, 0x65, 0x73, 0x2e, 0x63,
 0x6f, 0x6e, 0x74, 0x61, 0x69, 0x6e, 0x65, 0x72, 0x2e, 0x53, 0x65, 0x71,
 0x75, 0x65, 0x6e, 0x74, 0x69, 0x61, 0x6c, 0x5f, 0x6d, 0x6f, 0x64, 0x65,
 0x6c, 0x2f, 0x5f, 0x5f, 0x6d, 0x61, 0x69, 0x6e, 0x5f, 0x5f, 0x2e, 0x46,
 0x65, 0x61, 0x74, 0x75, 0x72, 0x65, 0x57, 0x69, 0x73, 0x65, 0x41, 0x74,
 0x74, 0x65, 0x6e, 0x74, 0x69, 0x6f, 0x6e, 0x5f, 0x39, 0x3b, 0x00, 0x00,
 0x02, 0x00, 0x00, 0x00, 0x01, 0x00, 0x00, 0x00, 0x08, 0x00, 0x00, 0x00,
 0xda, 0xcd, 0xff, 0xff, 0x00, 0x00, 0x00, 0x01, 0x10, 0x00, 0x00, 0x00,
 0x10, 0x00, 0x00, 0x00, 0x61, 0x00, 0x00, 0x00, 0x98, 0x00, 0x00, 0x00,
 0x3c, 0xcd, 0xff, 0xff, 0x8b, 0x00, 0x00, 0x00, 0x5f, 0x5f, 0x6d, 0x61,
 0x69, 0x6e, 0x5f, 0x5f, 0x2e, 0x53, 0x6f, 0x43, 0x45, 0x73, 0x74, 0x69,
 0x6d, 0x61, 0x74, 0x6f, 0x72, 0x2f, 0x74, 0x6f, 0x72, 0x63, 0x68, 0x2e,
 0x6e, 0x6e, 0x2e, 0x6d, 0x6f, 0x64, 0x75, 0x6c, 0x65, 0x73, 0x2e, 0x63,
 0x6f, 0x6e, 0x74, 0x61, 0x69, 0x6e, 0x65, 0x72, 0x2e, 0x53, 0x65, 0x71,
 0x75, 0x65, 0x6e, 0x74, 0x69, 0x61, 0x6c, 0x5f, 0x6d, 0x6f, 0x64, 0x65,
 0x6c, 0x2f, 0x5f, 0x5f, 0x6d, 0x61, 0x69, 0x6e, 0x5f, 0x5f, 0x2e, 0x46,
 0x65, 0x61, 0x74, 0x75, 0x72, 0x65, 0x57, 0x69, 0x73, 0x65, 0x41, 0x74,
 0x74, 0x65, 0x6e, 0x74, 0x69, 0x6f, 0x6e, 0x5f, 0x39, 0x2f, 0x74, 0x6f,
 0x72, 0x63, 0x68, 0x2e, 0x6e, 0x6e, 0x2e, 0x6d, 0x6f, 0x64, 0x75, 0x6c,
 0x65, 0x73, 0x2e, 0x6c, 0x69, 0x6e, 0x65, 0x61, 0x72, 0x2e, 0x4c, 0x69,
 0x6e, 0x65, 0x61, 0x72, 0x5f, 0x61, 0x74, 0x74, 0x65, 0x6e, 0x74, 0x69,
 0x6f, 0x6e, 0x3b, 0x00, 0x02, 0x00, 0x00, 0x00, 0x01, 0x00, 0x00, 0x00,
 0x08, 0x00, 0x00, 0x00, 0x92, 0xce, 0xff, 0xff, 0x00, 0x00, 0x00, 0x01,
 0x10, 0x00, 0x00, 0x00, 0x10, 0x00, 0x00, 0x00, 0x60, 0x00, 0x00, 0x00,
 0x70, 0x00, 0x00, 0x00, 0xf4, 0xcd, 0xff, 0xff, 0x61, 0x00, 0x00, 0x00,
 0x5f, 0x5f, 0x6d, 0x61, 0x69, 0x6e, 0x5f, 0x5f, 0x2e, 0x53, 0x6f, 0x43,
 0x45, 0x73, 0x74, 0x69, 0x6d, 0x61, 0x74, 0x6f, 0x72, 0x2f, 0x74, 0x6f,
 0x72, 0x63, 0x68, 0x2e, 0x6e, 0x6e, 0x2e, 0x6d, 0x6f, 0x64, 0x75, 0x6c,
 0x65, 0x73, 0x2e, 0x63, 0x6f, 0x6e, 0x74, 0x61, 0x69, 0x6e, 0x65, 0x72,
 0x2e, 0x53, 0x65, 0x71, 0x75, 0x65, 0x6e, 0x74, 0x69, 0x61, 0x6c, 0x5f,
 0x6d, 0x6f, 0x64, 0x65, 0x6c, 0x2f, 0x5f, 0x5f, 0x6d, 0x61, 0x69, 0x6e,
 0x5f, 0x5f, 0x2e, 0x4c, 0x69, 0x6e, 0x65, 0x61, 0x72, 0x52, 0x65, 0x73,
 0x69, 0x64, 0x75, 0x61, 0x6c, 0x42, 0x6c, 0x6f, 0x63, 0x6b, 0x5f, 0x38,
 0x3b, 0x00, 0x00, 0x00, 0x02, 0x00, 0x00, 0x00, 0x01, 0x00, 0x00, 0x00,
 0x08, 0x00, 0x00, 0x00, 0x22, 0xcf, 0xff, 0xff, 0x00, 0x00, 0x00, 0x01,
 0x10, 0x00, 0x00, 0x00, 0x10, 0x00, 0x00, 0x00, 0x5f, 0x00, 0x00, 0x00,
 0x9c, 0x00, 0x00, 0x00, 0x84, 0xce, 0xff, 0xff, 0x8e, 0x00, 0x00, 0x00,
 0x5f, 0x5f, 0x6d, 0x61, 0x69, 0x6e, 0x5f, 0x5f, 0x2e, 0x53, 0x6f, 0x43,
 0x45, 0x73, 0x74, 0x69, 0x6d, 0x61, 0x74, 0x6f, 0x72, 0x2f, 0x74, 0x6f,
 0x72, 0x63, 0x68, 0x2e, 0x6e, 0x6e, 0x2e, 0x6d, 0x6f, 0x64, 0x75, 0x6c,
 0x65, 0x73, 0x2e, 0x63, 0x6f, 0x6e, 0x74, 0x61, 0x69, 0x6e, 0x65, 0x72,
 0x2e, 0x53, 0x65, 0x71, 0x75, 0x65, 0x6e, 0x74, 0x69, 0x61, 0x6c, 0x5f,
 0x6d, 0x6f, 0x64, 0x65, 0x6c, 0x2f, 0x5f, 0x5f, 0x6d, 0x61, 0x69, 0x6e,
 0x5f, 0x5f, 0x2e, 0x4c, 0x69, 0x6e, 0x65, 0x61, 0x72, 0x52, 0x65, 0x73,
 0x69, 0x64, 0x75, 0x61, 0x6c, 0x42, 0x6c, 0x6f, 0x63, 0x6b, 0x5f, 0x38,
 0x2f, 0x74, 0x6f, 0x72, 0x63, 0x68, 0x2e, 0x6e, 0x6e, 0x2e, 0x6d, 0x6f,
 0x64, 0x75, 0x6c, 0x65, 0x73, 0x2e, 0x6c, 0x69, 0x6e, 0x65, 0x61, 0x72,
 0x2e, 0x4c, 0x69, 0x6e, 0x65, 0x61, 0x72, 0x5f, 0x69, 0x6e, 0x70, 0x75,
 0x74, 0x5f, 0x6d, 0x61, 0x70, 0x70, 0x69, 0x6e, 0x67, 0x3b, 0x00, 0x00,
 0x02, 0x00, 0x00, 0x00, 0x01, 0x00, 0x00, 0x00, 0x08, 0x00, 0x00, 0x00,
 0xde, 0xcf, 0xff, 0xff, 0x00, 0x00, 0x00, 0x01, 0x10, 0x00, 0x00, 0x00,
 0x10, 0x00, 0x00, 0x00, 0x5e, 0x00, 0x00, 0x00, 0xbc, 0x00, 0x00, 0x00,
 0x40, 0xcf, 0xff, 0xff, 0xae, 0x00, 0x00, 0x00, 0x5f, 0x5f, 0x6d, 0x61,
 0x69, 0x6e, 0x5f, 0x5f, 0x2e, 0x53, 0x6f, 0x43, 0x45, 0x73, 0x74, 0x69,
 0x6d, 0x61, 0x74, 0x6f, 0x72, 0x2f, 0x74, 0x6f, 0x72, 0x63, 0x68, 0x2e,
 0x6e, 0x6e, 0x2e, 0x6d, 0x6f, 0x64, 0x75, 0x6c, 0x65, 0x73, 0x2e, 0x63,
 0x6f, 0x6e, 0x74, 0x61, 0x69, 0x6e, 0x65, 0x72, 0x2e, 0x53, 0x65, 0x71,
 0x75, 0x65, 0x6e, 0x74, 0x69, 0x61, 0x6c, 0x5f, 0x6d, 0x6f, 0x64, 0x65,
 0x6c, 0x2f, 0x5f, 0x5f, 0x6d, 0x61, 0x69, 0x6e, 0x5f, 0x5f, 0x2e, 0x4c,
 0x69, 0x6e, 0x65, 0x61, 0x72, 0x52, 0x65, 0x73, 0x69, 0x64, 0x75, 0x61,
 0x6c, 0x42, 0x6c, 0x6f, 0x63, 0x6b, 0x5f, 0x38, 0x2f, 0x74, 0x6f, 0x72,
 0x63, 0x68, 0x2e, 0x6e, 0x6e, 0x2e, 0x6d, 0x6f, 0x64, 0x75, 0x6c, 0x65,
 0x73, 0x2e, 0x63, 0x6f, 0x6e, 0x74, 0x61, 0x69, 0x6e, 0x65, 0x72, 0x2e,
 0x53, 0x65, 0x71, 0x75, 0x65, 0x6e, 0x74, 0x69, 0x61, 0x6c, 0x5f, 0x6d,
 0x6f, 0x64, 0x65, 0x6c, 0x2f, 0x74, 0x6f, 0x72, 0x63, 0x68, 0x2e, 0x6e,
 0x6e, 0x2e, 0x6d, 0x6f, 0x64, 0x75, 0x6c, 0x65, 0x73, 0x2e, 0x6c, 0x69,
 0x6e, 0x65, 0x61, 0x72, 0x2e, 0x4c, 0x69, 0x6e, 0x65, 0x61, 0x72, 0x5f,
 0x33, 0x3b, 0x00, 0x00, 0x02, 0x00, 0x00, 0x00, 0x01, 0x00, 0x00, 0x00,
 0x08, 0x00, 0x00, 0x00, 0xba, 0xd0, 0xff, 0xff, 0x00, 0x00, 0x00, 0x01,
 0x10, 0x00, 0x00, 0x00, 0x10, 0x00, 0x00, 0x00, 0x5d, 0x00, 0x00, 0x00,
 0xc4, 0x00, 0x00, 0x00, 0x1c, 0xd0, 0xff, 0xff, 0xb6, 0x00, 0x00, 0x00,
 0x5f, 0x5f, 0x6d, 0x61, 0x69, 0x6e, 0x5f, 0x5f, 0x2e, 0x53, 0x6f, 0x43,
 0x45, 0x73, 0x74, 0x69, 0x6d, 0x61, 0x74, 0x6f, 0x72, 0x2f, 0x74, 0x6f,
 0x72, 0x63, 0x68, 0x2e, 0x6e, 0x6e, 0x2e, 0x6d, 0x6f, 0x64, 0x75, 0x6c,
 0x65, 0x73, 0x2e, 0x63, 0x6f, 0x6e, 0x74, 0x61, 0x69, 0x6e, 0x65, 0x72,
 0x2e, 0x53, 0x65, 0x71, 0x75, 0x65, 0x6e, 0x74, 0x69, 0x61, 0x6c, 0x5f,
 0x6d, 0x6f, 0x64, 0x65, 0x6c, 0x2f, 0x5f, 0x5f, 0x6d, 0x61, 0x69, 0x6e,
 0x5f, 0x5f, 0x2e, 0x4c, 0x69, 0x6e, 0x65, 0x61, 0x72, 0x52, 0x65, 0x73,
 0x69, 0x64, 0x75, 0x61, 0x6c, 0x42, 0x6c, 0x6f, 0x63, 0x6b, 0x5f, 0x38,
 0x2f, 0x74, 0x6f, 0x72, 0x63, 0x68, 0x2e, 0x6e, 0x6e, 0x2e, 0x6d, 0x6f,
 0x64, 0x75, 0x6c, 0x65, 0x73, 0x2e, 0x63, 0x6f, 0x6e, 0x74, 0x61, 0x69,
 0x6e, 0x65, 0x72, 0x2e, 0x53, 0x65, 0x71, 0x75, 0x65, 0x6e, 0x74, 0x69,
 0x61, 0x6c, 0x5f, 0x6d, 0x6f, 0x64, 0x65, 0x6c, 0x2f, 0x74, 0x6f, 0x72,
 0x63, 0x68, 0x2e, 0x6e, 0x6e, 0x2e, 0x6d, 0x6f, 0x64, 0x75, 0x6c, 0x65,
 0x73, 0x2e, 0x62, 0x61, 0x74, 0x63, 0x68, 0x6e, 0x6f, 0x72, 0x6d, 0x2e,
 0x42, 0x61, 0x74, 0x63, 0x68, 0x4e, 0x6f, 0x72, 0x6d, 0x31, 0x64, 0x5f,
 0x32, 0x3b, 0x00, 0x00, 0x02, 0x00, 0x00, 0x00, 0x01, 0x00, 0x00, 0x00,
 0x08, 0x00, 0x00, 0x00, 0x9e, 0xd1, 0xff, 0xff, 0x00, 0x00, 0x00, 0x01,
 0x10, 0x00, 0x00, 0x00, 0x10, 0x00, 0x00, 0x00, 0x5c, 0x00, 0x00, 0x00,
 0x6c, 0x01, 0x00, 0x00, 0x00, 0xd1, 0xff, 0xff, 0x5f, 0x01, 0x00, 0x00,
 0x5f, 0x5f, 0x6d, 0x61, 0x69, 0x6e, 0x5f, 0x5f, 0x2e, 0x53, 0x6f, 0x43,
 0x45, 0x73, 0x74, 0x69, 0x6d, 0x61, 0x74, 0x6f, 0x72, 0x2f, 0x74, 0x6f,
 0x72, 0x63, 0x68, 0x2e, 0x6e, 0x6e, 0x2e, 0x6d, 0x6f, 0x64, 0x75, 0x6c,
 0x65, 0x73, 0x2e, 0x63, 0x6f, 0x6e, 0x74, 0x61, 0x69, 0x6e, 0x65, 0x72,
 0x2e, 0x53, 0x65, 0x71, 0x75, 0x65, 0x6e, 0x74, 0x69, 0x61, 0x6c, 0x5f,
 0x6d, 0x6f, 0x64, 0x65, 0x6c, 0x2f, 0x5f, 0x5f, 0x6d, 0x61, 0x69, 0x6e,
 0x5f, 0x5f, 0x2e, 0x4c, 0x69, 0x6e, 0x65, 0x61, 0x72, 0x52, 0x65, 0x73,
 0x69, 0x64, 0x75, 0x61, 0x6c, 0x42, 0x6c, 0x6f, 0x63, 0x6b, 0x5f, 0x38,
 0x2f, 0x74, 0x6f, 0x72, 0x63, 0x68, 0x2e, 0x6e, 0x6e, 0x2e, 0x6d, 0x6f,
 0x64, 0x75, 0x6c, 0x65, 0x73, 0x2e, 0x63, 0x6f, 0x6e, 0x74, 0x61, 0x69,
 0x6e, 0x65, 0x72, 0x2e, 0x53, 0x65, 0x71, 0x75, 0x65, 0x6e, 0x74, 0x69,
 0x61, 0x6c, 0x5f, 0x6d, 0x6f, 0x64, 0x65, 0x6c, 0x2f, 0x74, 0x6f, 0x72,
 0x63, 0x68, 0x2e, 0x6e, 0x6e, 0x2e, 0x6d, 0x6f, 0x64, 0x75, 0x6c, 0x65,
 0x73, 0x2e, 0x61, 0x63, 0x74, 0x69, 0x76, 0x61, 0x74, 0x69, 0x6f, 0x6e,
 0x2e, 0x52, 0x65, 0x4c, 0x55, 0x5f, 0x31, 0x3b, 0x3b, 0x5f, 0x5f, 0x6d,
 0x61, 0x69, 0x6e, 0x5f, 0x5f, 0x2e, 0x53, 0x6f, 0x43, 0x45, 0x73, 0x74,
 0x69, 0x6d, 0x61, 0x74, 0x6f, 0x72, 0x2f, 0x74, 0x6f, 0x72, 0x63, 0x68,
 0x2e, 0x6e, 0x6e, 0x2e, 0x6d, 0x6f, 0x64, 0x75, 0x6c, 0x65, 0x73, 0x2e,
 0x63, 0x6f, 0x6e, 0x74, 0x61, 0x69, 0x6e, 0x65, 0x72, 0x2e, 0x53, 0x65,
 0x71, 0x75, 0x65, 0x6e, 0x74, 0x69, 0x61, 0x6c, 0x5f, 0x6d, 0x6f, 0x64,
 0x65, 0x6c, 0x2f, 0x5f, 0x5f, 0x6d, 0x61, 0x69, 0x6e, 0x5f, 0x5f, 0x2e,
 0x4c, 0x69, 0x6e, 0x65, 0x61, 0x72, 0x52, 0x65, 0x73, 0x69, 0x64, 0x75,
 0x61, 0x6c, 0x42, 0x6c, 0x6f, 0x63, 0x6b, 0x5f, 0x38, 0x2f, 0x74, 0x6f,
 0x72, 0x63, 0x68, 0x2e, 0x6e, 0x6e, 0x2e, 0x6d, 0x6f, 0x64, 0x75, 0x6c,
 0x65, 0x73, 0x2e, 0x63, 0x6f, 0x6e, 0x74, 0x61, 0x69, 0x6e, 0x65, 0x72,
 0x2e, 0x53, 0x65, 0x71, 0x75, 0x65, 0x6e, 0x74, 0x69, 0x61, 0x6c, 0x5f,
 0x6d, 0x6f, 0x64, 0x65, 0x6c, 0x2f, 0x74, 0x6f, 0x72, 0x63, 0x68, 0x2e,
 0x6e, 0x6e, 0x2e, 0x6d, 0x6f, 0x64, 0x75, 0x6c, 0x65, 0x73, 0x2e, 0x6c,
 0x69, 0x6e, 0x65, 0x61, 0x72, 0x2e, 0x4c, 0x69, 0x6e, 0x65, 0x61, 0x72,
 0x5f, 0x30, 0x3b, 0x00, 0x02, 0x00, 0x00, 0x00, 0x01, 0x00, 0x00, 0x00,
 0x08, 0x00, 0x00, 0x00, 0x2a, 0xd3, 0xff, 0xff, 0x00, 0x00, 0x00, 0x01,
 0x10, 0x00, 0x00, 0x00, 0x10, 0x00, 0x00, 0x00, 0x5b, 0x00, 0x00, 0x00,
 0xbc, 0x00, 0x00, 0x00, 0x8c, 0xd2, 0xff, 0xff, 0xae, 0x00, 0x00, 0x00,
 0x5f, 0x5f, 0x6d, 0x61, 0x69, 0x6e, 0x5f, 0x5f, 0x2e, 0x53, 0x6f, 0x43,
 0x45, 0x73, 0x74, 0x69, 0x6d, 0x61, 0x74, 0x6f, 0x72, 0x2f, 0x74, 0x6f,
 0x72, 0x63, 0x68, 0x2e, 0x6e, 0x6e, 0x2e, 0x6d, 0x6f, 0x64, 0x75, 0x6c,
 0x65, 0x73, 0x2e, 0x63, 0x6f, 0x6e, 0x74, 0x61, 0x69, 0x6e, 0x65, 0x72,
 0x2e, 0x53, 0x65, 0x71, 0x75, 0x65, 0x6e, 0x74, 0x69, 0x61, 0x6c, 0x5f,
 0x6d, 0x6f, 0x64, 0x65, 0x6c, 0x2f, 0x5f, 0x5f, 0x6d, 0x61, 0x69, 0x6e,
 0x5f, 0x5f, 0x2e, 0x4c, 0x69, 0x6e, 0x65, 0x61, 0x72, 0x52, 0x65, 0x73,
 0x69, 0x64, 0x75, 0x61, 0x6c, 0x42, 0x6c, 0x6f, 0x63, 0x6b, 0x5f, 0x38,
 0x2f, 0x74, 0x6f, 0x72, 0x63, 0x68, 0x2e, 0x6e, 0x6e, 0x2e, 0x6d, 0x6f,
 0x64, 0x75, 0x6c, 0x65, 0x73, 0x2e, 0x63, 0x6f, 0x6e, 0x74, 0x61, 0x69,
 0x6e, 0x65, 0x72, 0x2e, 0x53, 0x65, 0x71, 0x75, 0x65, 0x6e, 0x74, 0x69,
 0x61, 0x6c, 0x5f, 0x6d, 0x6f, 0x64, 0x65, 0x6c, 0x2f, 0x74, 0x6f, 0x72,
 0x63, 0x68, 0x2e, 0x6e, 0x6e, 0x2e, 0x6d, 0x6f, 0x64, 0x75, 0x6c, 0x65,
 0x73, 0x2e, 0x6c, 0x69, 0x6e, 0x65, 0x61, 0x72, 0x2e, 0x4c, 0x69, 0x6e,
 0x65, 0x61, 0x72, 0x5f, 0x30, 0x3b, 0x00, 0x00, 0x02, 0x00, 0x00, 0x00,
 0x01, 0x00, 0x00, 0x00, 0x08, 0x00, 0x00, 0x00, 0x06, 0xd4, 0xff, 0xff,
 0x00, 0x00, 0x00, 0x01, 0x10, 0x00, 0x00, 0x00, 0x10, 0x00, 0x00, 0x00,
 0x5a, 0x00, 0x00, 0x00, 0x70, 0x00, 0x00, 0x00, 0x68, 0xd3, 0xff, 0xff,
 0x63, 0x00, 0x00, 0x00, 0x5f, 0x5f, 0x6d, 0x61, 0x69, 0x6e, 0x5f, 0x5f,
 0x2e, 0x53, 0x6f, 0x43, 0x45, 0x73, 0x74, 0x69, 0x6d, 0x61, 0x74, 0x6f,
 0x72, 0x2f, 0x74, 0x6f, 0x72, 0x63, 0x68, 0x2e, 0x6e, 0x6e, 0x2e, 0x6d,
 0x6f, 0x64, 0x75, 0x6c, 0x65, 0x73, 0x2e, 0x63, 0x6f, 0x6e, 0x74, 0x61,
 0x69, 0x6e, 0x65, 0x72, 0x2e, 0x53, 0x65, 0x71, 0x75, 0x65, 0x6e, 0x74,
 0x69, 0x61, 0x6c, 0x5f, 0x6d, 0x6f, 0x64, 0x65, 0x6c, 0x2f, 0x5f, 0x5f,
 0x6d, 0x61, 0x69, 0x6e, 0x5f, 0x5f, 0x2e, 0x46, 0x65, 0x61, 0x74, 0x75,
 0x72, 0x65, 0x57, 0x69, 0x73, 0x65, 0x41, 0x74, 0x74, 0x65, 0x6e, 0x74,
 0x69, 0x6f, 0x6e, 0x5f, 0x37, 0x3b, 0x32, 0x00, 0x02, 0x00, 0x00, 0x00,
 0x01, 0x00, 0x00, 0x00, 0x08, 0x00, 0x00, 0x00, 0x96, 0xd4, 0xff, 0xff,
 0x00, 0x00, 0x00, 0x01, 0x10, 0x00, 0x00, 0x00, 0x10, 0x00, 0x00, 0x00,
 0x59, 0x00, 0x00, 0x00, 0x70, 0x00, 0x00, 0x00, 0xf8, 0xd3, 0xff, 0xff,
 0x63, 0x00, 0x00, 0x00, 0x5f, 0x5f, 0x6d, 0x61, 0x69, 0x6e, 0x5f, 0x5f,
 0x2e, 0x53, 0x6f, 0x43, 0x45, 0x73, 0x74, 0x69, 0x6d, 0x61, 0x74, 0x6f,
 0x72, 0x2f, 0x74, 0x6f, 0x72, 0x63, 0x68, 0x2e, 0x6e, 0x6e, 0x2e, 0x6d,
 0x6f, 0x64, 0x75, 0x6c, 0x65, 0x73, 0x2e, 0x63, 0x6f, 0x6e, 0x74, 0x61,
 0x69, 0x6e, 0x65, 0x72, 0x2e, 0x53, 0x65, 0x71, 0x75, 0x65, 0x6e, 0x74,
 0x69, 0x61, 0x6c, 0x5f, 0x6d, 0x6f, 0x64, 0x65, 0x6c, 0x2f, 0x5f, 0x5f,
 0x6d, 0x61, 0x69, 0x6e, 0x5f, 0x5f, 0x2e, 0x46, 0x65, 0x61, 0x74, 0x75,
 0x72, 0x65, 0x57, 0x69, 0x73, 0x65, 0x41, 0x74, 0x74, 0x65, 0x6e, 0x74,
 0x69, 0x6f, 0x6e, 0x5f, 0x37, 0x3b, 0x31, 0x00, 0x02, 0x00, 0x00, 0x00,
 0x01, 0x00, 0x00, 0x00, 0x08, 0x00, 0x00, 0x00, 0x26, 0xd5, 0xff, 0xff,
 0x00, 0x00, 0x00, 0x01, 0x10, 0x00, 0x00, 0x00, 0x10, 0x00, 0x00, 0x00,
 0x58, 0x00, 0x00, 0x00, 0x70, 0x00, 0x00, 0x00, 0x88, 0xd4, 0xff, 0xff,
 0x62, 0x00, 0x00, 0x00, 0x5f, 0x5f, 0x6d, 0x61, 0x69, 0x6e, 0x5f, 0x5f,
 0x2e, 0x53, 0x6f, 0x43, 0x45, 0x73, 0x74, 0x69, 0x6d, 0x61, 0x74, 0x6f,
 0x72, 0x2f, 0x74, 0x6f, 0x72, 0x63, 0x68, 0x2e, 0x6e, 0x6e, 0x2e, 0x6d,
 0x6f, 0x64, 0x75, 0x6c, 0x65, 0x73, 0x2e, 0x63, 0x6f, 0x6e, 0x74, 0x61,
 0x69, 0x6e, 0x65, 0x72, 0x2e, 0x53, 0x65, 0x71, 0x75, 0x65, 0x6e, 0x74,
 0x69, 0x61, 0x6c, 0x5f, 0x6d, 0x6f, 0x64, 0x65, 0x6c, 0x2f, 0x5f, 0x5f,
 0x6d, 0x61, 0x69, 0x6e, 0x5f, 0x5f, 0x2e, 0x46, 0x65, 0x61, 0x74, 0x75,
 0x72, 0x65, 0x57, 0x69, 0x73, 0x65, 0x41, 0x74, 0x74, 0x65, 0x6e, 0x74,
 0x69, 0x6f, 0x6e, 0x5f, 0x37, 0x3b, 0x00, 0x00, 0x02, 0x00, 0x00, 0x00,
 0x01, 0x00, 0x00, 0x00, 0x08, 0x00, 0x00, 0x00, 0xb6, 0xd5, 0xff, 0xff,
 0x00, 0x00, 0x00, 0x01, 0x10, 0x00, 0x00, 0x00, 0x10, 0x00, 0x00, 0x00,
 0x57, 0x00, 0x00, 0x00, 0x98, 0x00, 0x00, 0x00, 0x18, 0xd5, 0xff, 0xff,
 0x8b, 0x00, 0x00, 0x00, 0x5f, 0x5f, 0x6d, 0x61, 0x69, 0x6e, 0x5f, 0x5f,
 0x2e, 0x53, 0x6f, 0x43, 0x45, 0x73, 0x74, 0x69, 0x6d, 0x61, 0x74, 0x6f,
 0x72, 0x2f, 0x74, 0x6f, 0x72, 0x63, 0x68, 0x2e, 0x6e, 0x6e, 0x2e, 0x6d,
 0x6f, 0x64, 0x75, 0x6c, 0x65, 0x73, 0x2e, 0x63, 0x6f, 0x6e, 0x74, 0x61,
 0x69, 0x6e, 0x65, 0x72, 0x2e, 0x53, 0x65, 0x71, 0x75, 0x65, 0x6e, 0x74,
 0x69, 0x61, 0x6c, 0x5f, 0x6d, 0x6f, 0x64, 0x65, 0x6c, 0x2f, 0x5f, 0x5f,
 0x6d, 0x61, 0x69, 0x6e, 0x5f, 0x5f, 0x2e, 0x46, 0x65, 0x61, 0x74, 0x75,
 0x72, 0x65, 0x57, 0x69, 0x73, 0x65, 0x41, 0x74, 0x74, 0x65, 0x6e, 0x74,
 0x69, 0x6f, 0x6e, 0x5f, 0x37, 0x2f, 0x74, 0x6f, 0x72, 0x63, 0x68, 0x2e,
 0x6e, 0x6e, 0x2e, 0x6d, 0x6f, 0x64, 0x75, 0x6c, 0x65, 0x73, 0x2e, 0x6c,
 0x69, 0x6e, 0x65, 0x61, 0x72, 0x2e, 0x4c, 0x69, 0x6e, 0x65, 0x61, 0x72,
 0x5f, 0x61, 0x74, 0x74, 0x65, 0x6e, 0x74, 0x69, 0x6f, 0x6e, 0x3b, 0x00,
 0x02, 0x00, 0x00, 0x00, 0x01, 0x00, 0x00, 0x00, 0x08, 0x00, 0x00, 0x00,
 0x6e, 0xd6, 0xff, 0xff, 0x00, 0x00, 0x00, 0x01, 0x10, 0x00, 0x00, 0x00,
 0x10, 0x00, 0x00, 0x00, 0x56, 0x00, 0x00, 0x00, 0x70, 0x00, 0x00, 0x00,
 0xd0, 0xd5, 0xff, 0xff, 0x61, 0x00, 0x00, 0x00, 0x5f, 0x5f, 0x6d, 0x61,
 0x69, 0x6e, 0x5f, 0x5f, 0x2e, 0x53, 0x6f, 0x43, 0x45, 0x73, 0x74, 0x69,
 0x6d, 0x61, 0x74, 0x6f, 0x72, 0x2f, 0x74, 0x6f, 0x72, 0x63, 0x68, 0x2e,
 0x6e, 0x6e, 0x2e, 0x6d, 0x6f, 0x64, 0x75, 0x6c, 0x65, 0x73, 0x2e, 0x63,
